{
  "</s>": 0,
  "<unk>": 1,
  ".": 2,
  ",": 3,
  "\u2581the": 4,
  "\u2581of": 5,
  "\u2581to": 6,
  "\u2581on": 7,
  "'": 8,
  "\u2581and": 9,
  "\u2581-": 10,
  "s": 11,
  "\u2581ja": 12,
  "?": 13,
  "\u2581": 14,
  "\u2581in": 15,
  "n": 16,
  "\u2581a": 17,
  "\u2581I": 18,
  "t": 19,
  "-": 20,
  "\u2581you": 21,
  ":": 22,
  "\u2581that": 23,
  "\u2581for": 24,
  "\u2581is": 25,
  "\u2581(": 26,
  "a": 27,
  "\u2581be": 28,
  ")": 29,
  "\u2581it": 30,
  "\u2581with": 31,
  "\u2581ett\u00e4": 32,
  "\u2581The": 33,
  "\u2581\"": 34,
  "!": 35,
  "\u2581this": 36,
  "\u2581are": 37,
  "\u2581not": 38,
  "\u2581ei": 39,
  "...": 40,
  "\u2581by": 41,
  "\u2581as": 42,
  "\u2581have": 43,
  "en": 44,
  "\u2581or": 45,
  "in": 46,
  "\u2581was": 47,
  "\u2581me": 48,
  "sta": 49,
  "\u2581You": 50,
  "\u2581we": 51,
  "\u2581tai": 52,
  "m": 53,
  ";": 54,
  "\u2581se": 55,
  "\u2581he": 56,
  "\u2581at": 57,
  "\u2581from": 58,
  "re": 59,
  "\u2581your": 60,
  "ssa": 61,
  "\u2581can": 62,
  "\u2581ole": 63,
  "\u2581all": 64,
  "\u2581It": 65,
  "\u2581an": 66,
  "\u2581will": 67,
  "ta": 68,
  "\u2581do": 69,
  "\u00e4": 70,
  "an": 71,
  "lle": 72,
  "\u2581sen": 73,
  "\u2581which": 74,
  "\u2581my": 75,
  "si": 76,
  "\u2581oli": 77,
  "/": 78,
  "\u2581ovat": 79,
  "\u2581know": 80,
  "\u2581No": 81,
  "o": 82,
  "\u2581out": 83,
  "\u2581what": 84,
  "\u2581has": 85,
  "\u2581European": 86,
  "\u2581What": 87,
  "mme": 88,
  "d": 89,
  "\u2581kuin": 90,
  "lla": 91,
  "\u25811": 92,
  "\u2581We": 93,
  "\u2581He": 94,
  "\u2581they": 95,
  "\u2581one": 96,
  "\u2581up": 97,
  "\u2581h\u00e4n": 98,
  "\u2581Euroopan": 99,
  "\u2581A": 100,
  "\u2581joka": 101,
  "\u2581but": 102,
  "\u2581about": 103,
  "\u2581Commission": 104,
  "ing": 105,
  "\u2581In": 106,
  "\u2581shall": 107,
  "ni": 108,
  "\u2581should": 109,
  "i": 110,
  "\u2581like": 111,
  "\u2581been": 112,
  "\u2581there": 113,
  "\u2581Se": 114,
  "\u2581voi": 115,
  "\u2581just": 116,
  "\u2581don": 117,
  "\u2581H\u00e4n": 118,
  "ja": 119,
  "\u2581EU": 120,
  "e": 121,
  "\u2581so": 122,
  "\u2581jotka": 123,
  "\u2581En": 124,
  "\u2581And": 125,
  "\u2581their": 126,
  "\u2581This": 127,
  "\u2581here": 128,
  "\u25812": 129,
  "\u2581if": 130,
  "\u2581his": 131,
  "\u2581other": 132,
  "\u2581would": 133,
  "\u2581no": 134,
  "\u2581more": 135,
  "\u2581vain": 136,
  "ll": 137,
  "\u2581him": 138,
  "\u2581my\u00f6s": 139,
  "\u2581mutta": 140,
  "\u2581were": 141,
  "\u2581kun": 142,
  "\u2581sek\u00e4": 143,
  "na": 144,
  "ve": 145,
  "\u2581right": 146,
  "\u2581niin": 147,
  "\u2581time": 148,
  "\u2581get": 149,
  "ed": 150,
  "ksi": 151,
  "\u2581sit\u00e4": 152,
  "\u2581Member": 153,
  "\u2581Mit\u00e4": 154,
  "\u2581its": 155,
  "kin": 156,
  "ko": 157,
  ").": 158,
  "\u2581also": 159,
  "\u2581olisi": 160,
  "\u2581her": 161,
  "\u2581who": 162,
  "\u25813": 163,
  "\u2581them": 164,
  "\u2581Article": 165,
  "\u2581\u2013": 166,
  "\u2581N": 167,
  "\u2581kanssa": 168,
  "\u2581Regulation": 169,
  "\u2581our": 170,
  "\u2581That": 171,
  "\u2581had": 172,
  "\u2581into": 173,
  "on": 174,
  "y": 175,
  "\u2581Ei": 176,
  "\u2581when": 177,
  "\u2581States": 178,
  "\u2581Council": 179,
  "\u2581Jos": 180,
  "st\u00e4": 181,
  "\u2581olla": 182,
  "\u2581jos": 183,
  "\u2581any": 184,
  "\u2581go": 185,
  "\u2581may": 186,
  "\"": 187,
  "\u2581us": 188,
  "\u2581want": 189,
  "\u2581'": 190,
  "\u2581need": 191,
  "\u2581mit\u00e4": 192,
  "\u2581siit\u00e4": 193,
  "\u2581than": 194,
  "\u2581T\u00e4m\u00e4": 195,
  "\u2581think": 196,
  "\u2581now": 197,
  "ista": 198,
  "\u2581t\u00e4m\u00e4n": 199,
  "\u2581got": 200,
  "\u2581h\u00e4nen": 201,
  "t\u00e4": 202,
  "vat": 203,
  "\u2581But": 204,
  "\u2581these": 205,
  "\u2581only": 206,
  "\u2581artiklan": 207,
  "\u2581must": 208,
  "\u2581ne": 209,
  "\u25815": 210,
  "\u2581some": 211,
  "\u2581take": 212,
  "\u2581see": 213,
  "jen": 214,
  "\u2581Union": 215,
  "\u2581So": 216,
  "et": 217,
  "\u2581people": 218,
  "S": 219,
  "\u2581she": 220,
  "),": 221,
  "\u2581new": 222,
  "\u2581mukaan": 223,
  "ss\u00e4": 224,
  "\u2581could": 225,
  "\u2581did": 226,
  "\u2581such": 227,
  "\u2581good": 228,
  "\u2581kaikki": 229,
  "\u2581L": 230,
  "\u2581Yeah": 231,
  "\u2581C": 232,
  "\u2581make": 233,
  "\u2581If": 234,
  "\u25814": 235,
  "\u2581where": 236,
  "\u2581way": 237,
  "ten": 238,
  "\u2581nyt": 239,
  "\u2581back": 240,
  "\u2581down": 241,
  "\u2581Olen": 242,
  "sti": 243,
  "\u2581those": 244,
  "EC": 245,
  "\u2581Ja": 246,
  "\u2581Mr": 247,
  "\u258110": 248,
  "\u2581S": 249,
  "\u2581over": 250,
  "\u2581use": 251,
  "\u2581work": 252,
  "\u2581Well": 253,
  "ly": 254,
  "ll\u00e4": 255,
  "\u2581under": 256,
  "\u2581t\u00e4m\u00e4": 257,
  "\u2581They": 258,
  "nsa": 259,
  "\u2581p\u00e4iv\u00e4n\u00e4": 260,
  "us": 261,
  "\u2581God": 262,
  "\u2581gonna": 263,
  "\u2581information": 264,
  "\u2581how": 265,
  "EY": 266,
  "\u2581going": 267,
  "\u2581\u2014": 268,
  "\u2581On": 269,
  "A": 270,
  "\u2581first": 271,
  "\u2581two": 272,
  "minen": 273,
  "\u2581very": 274,
  "er": 275,
  "\u2581eiv\u00e4t": 276,
  "\u2581between": 277,
  "\u2581saa": 278,
  "\u2581ollut": 279,
  "\u2581Oh": 280,
  "\u2581man": 281,
  "nne": 282,
  "\u2581jo": 283,
  "\u2581unionin": 284,
  ".\"": 285,
  "\u2581made": 286,
  "\u2581voidaan": 287,
  "\u2581sin\u00e4": 288,
  "lta": 289,
  "\u2581years": 290,
  "\u2581How": 291,
  "ille": 292,
  "\u2581say": 293,
  "\u2581come": 294,
  "ia": 295,
  "\u2581There": 296,
  "\u2581niiden": 297,
  "\u2581[": 298,
  "\u2581well": 299,
  "\u2581j\u00e4lkeen": 300,
  "\u2581komission": 301,
  "\u2581said": 302,
  "\u2581jonka": 303,
  "\u2581B": 304,
  "\u2581mukaisesti": 305,
  "issa": 306,
  "\u2581For": 307,
  "C": 308,
  "\u2581before": 309,
  "\u25816": 310,
  "\u2581then": 311,
  "\u2581sitten": 312,
  "\u2581She": 313,
  "\u2581Community": 314,
  "maan": 315,
  "\u258120": 316,
  "\u2581because": 317,
  "\u2581tulee": 318,
  "\u2581after": 319,
  "sa": 320,
  "\u2581min\u00e4": 321,
  "\u2581ennen": 322,
  "\u2581used": 323,
  "to": 324,
  "\u2581mit\u00e4\u00e4n": 325,
  "\u2581Parliament": 326,
  "\u2581hyvin": 327,
  "n\u00e4": 328,
  "I": 329,
  "\u2581Mutta": 330,
  "u": 331,
  "\u2581olet": 332,
  "\u2581E": 333,
  "\u2581pit\u00e4\u00e4": 334,
  "\u2581even": 335,
  "l": 336,
  "\u2581market": 337,
  "\u2581t\u00e4\u00e4ll\u00e4": 338,
  "\u2581koska": 339,
  "\u2581huomioon": 340,
  "EU": 341,
  "\u2581minua": 342,
  "\u2581too": 343,
  "\u2581olen": 344,
  "c": 345,
  "iden": 346,
  "te": 347,
  "\u2581en": 348,
  "\u2581something": 349,
  "\u2581measures": 350,
  "\u2581kohdan": 351,
  "h": 352,
  "\u25817": 353,
  "ne": 354,
  "\u258115": 355,
  "\u2581asetuksen": 356,
  "\u2581through": 357,
  "\u2581sinua": 358,
  "al": 359,
  "\u2581am": 360,
  "r": 361,
  "\u2581viel\u00e4": 362,
  "\u2581countries": 363,
  "\u2581day": 364,
  "\u2581does": 365,
  "\u2581All": 366,
  "tta": 367,
  "\u2581tehd\u00e4": 368,
  "\u2581really": 369,
  "ihin": 370,
  "\u2581Do": 371,
  "\u2581life": 372,
  "inen": 373,
  "\u2581neuvoston": 374,
  "\u2581P": 375,
  "\u00e4n": 376,
  "\u258112": 377,
  "\u2581State": 378,
  "un": 379,
  "b": 380,
  "\u2581T": 381,
  "\u2581tell": 382,
  "tte": 383,
  "\u2581being": 384,
  "\u2581year": 385,
  "2": 386,
  "\u2581products": 387,
  "\u2581Kun": 388,
  "\u2581set": 389,
  "\u2581kuten": 390,
  "\u2581same": 391,
  "\u2581didn": 392,
  "\u2581Why": 393,
  "g": 394,
  "va": 395,
  "\u2581following": 396,
  "\u25818": 397,
  "\u2581yhteis\u00f6n": 398,
  "\u2581much": 399,
  "nen": 400,
  "\u2581help": 401,
  "\u2581koko": 402,
  "\u2581h\u00e4net": 403,
  "\u2581within": 404,
  "\u2581minun": 405,
  "ke": 406,
  "\u258130": 407,
  "\u2581point": 408,
  "\u2581Directive": 409,
  "\u2581mean": 410,
  "\u2581Min\u00e4": 411,
  "\u2581order": 412,
  "\u2581Yes": 413,
  "\u2581%": 414,
  "\u2581part": 415,
  "\u2581little": 416,
  "T": 417,
  "\u2581eri": 418,
  "\u2581t\u00e4ss\u00e4": 419,
  "\u2581vuoden": 420,
  "\u2581Onko": 421,
  "\u2581jossa": 422,
  "\u2581national": 423,
  "\u2581p": 424,
  "\u2581s": 425,
  "\u2581system": 426,
  "\u2581\u2018": 427,
  "\u2581never": 428,
  "den": 429,
  "N": 430,
  "\u2581off": 431,
  "\u2581kuitenkin": 432,
  "\u2581still": 433,
  "]": 434,
  "\u2581K": 435,
  "\u2581paljon": 436,
  "\u2581place": 437,
  "\u2581sill\u00e4": 438,
  "\u2581t\u00e4t\u00e4": 439,
  "neet": 440,
  "\u2581As": 441,
  "illa": 442,
  "\u2581siihen": 443,
  "\u2581sinun": 444,
  "\u2581report": 445,
  "\u2581case": 446,
  "\u2581O": 447,
  "\u2581number": 448,
  "\u25819": 449,
  "\u2581give": 450,
  "\u2581most": 451,
  "\u2581osalta": 452,
  "\u2581long": 453,
  "\u2581last": 454,
  "\u2581vuonna": 455,
  "nut": 456,
  "\u2581To": 457,
  "\u2581erityisesti": 458,
  "\u2581particular": 459,
  "\u2581find": 460,
  "\u2581let": 461,
  "\u2581own": 462,
  "or": 463,
  "\u2581many": 464,
  "\u2581world": 465,
  "\u2581h\u00e4nt\u00e4": 466,
  "is": 467,
  "k\u00f6": 468,
  "\u2581policy": 469,
  "\u2581re": 470,
  "k": 471,
  "\u2581services": 472,
  "\u2581Miksi": 473,
  "\u2581why": 474,
  "\u2581look": 475,
  "\u2581doing": 476,
  "\u2581public": 477,
  "\u2581D": 478,
  "\u2581My": 479,
  "\u2581Miten": 480,
  "it": 481,
  "\u2581financial": 482,
  "\u2581yli": 483,
  "\u2581yksi": 484,
  "\u2581Europe": 485,
  "\u2581olevan": 486,
  "\u2581support": 487,
  "\u2581data": 488,
  "\u2581President": 489,
  "\u2581Committee": 490,
  "\u2581komissio": 491,
  "\u2581each": 492,
  "\u2581thing": 493,
  "pa": 494,
  "\u2581without": 495,
  "\u2581jotta": 496,
  "\u2581eik\u00e4": 497,
  "ita": 498,
  "\u2581accordance": 499,
  "\u2581level": 500,
  "\u2581vuoksi": 501,
  "\u2581ottaa": 502,
  "\u2581Niin": 503,
  "\u2581varten": 504,
  "\u2581joita": 505,
  "\u2581development": 506,
  "\u2581parlamentin": 507,
  "es": 508,
  "\u2581\u00c4l\u00e4": 509,
  "\u2581Don": 510,
  "1": 511,
  "\u258119": 512,
  "tti": 513,
  "\u2581put": 514,
  "B": 515,
  "\u2581aikana": 516,
  "\u2581means": 517,
  "\u2581e": 518,
  "\u2581Me": 519,
  "\u2581minulle": 520,
  "mista": 521,
  "\u2581important": 522,
  "\u2581Come": 523,
  "\u2581three": 524,
  "misen": 525,
  "\u258118": 526,
  "\u2581against": 527,
  "\u2581Okay": 528,
  "\u2581heid\u00e4n": 529,
  "\u2581meid\u00e4n": 530,
  "\u2581mik\u00e4": 531,
  "\u2581love": 532,
  "\u2581per": 533,
  "\u2581hyv\u00e4": 534,
  "\u2581voivat": 535,
  "\u2581Annex": 536,
  "ma": 537,
  "\u2581things": 538,
  "\u2581pit\u00e4isi": 539,
  "ist\u00e4": 540,
  "\u2581itse": 541,
  "\u2581both": 542,
  "\u2581te": 543,
  "\u2581tied\u00e4": 544,
  "\u2581better": 545,
  "\u2581antaa": 546,
  "\u2581mg": 547,
  "\u2581kohta": 548,
  "\u2581sinulle": 549,
  "\u2581joiden": 550,
  "\u2581kohdassa": 551,
  "\u2581Let": 552,
  "\u258125": 553,
  "\u2581j\u00e4senvaltioiden": 554,
  "miseen": 555,
  "\u2581Olet": 556,
  "ka": 557,
  "\u2581miten": 558,
  "\u2581aina": 559,
  "\u2581osa": 560,
  "\u2581pois": 561,
  "\u258111": 562,
  "\u2581Now": 563,
  "v\u00e4t": 564,
  "\u2581period": 565,
  "\u2581including": 566,
  "\u2581again": 567,
  "\u2581When": 568,
  "\u2581niit\u00e4": 569,
  "\u2581provided": 570,
  "E": 571,
  "\u2581end": 572,
  "\u2581Et": 573,
  "\u2581aid": 574,
  "\u2581koskevat": 575,
  "\u2581et": 576,
  "\u2581Where": 577,
  "\u2581joilla": 578,
  "\u2581kaksi": 579,
  "\u2581economic": 580,
  "\u2581necessary": 581,
  "\u2581de": 582,
  "\u2581jotain": 583,
  "van": 584,
  "\u2581conditions": 585,
  "\u2581taken": 586,
  "\u2581&": 587,
  "\u2581sure": 588,
  "\u2581b": 589,
  "\u2581great": 590,
  "(": 591,
  "le": 592,
  "\u2581rules": 593,
  "man": 594,
  "3": 595,
  "\u2581social": 596,
  "\u2581G": 597,
  "\u2581F": 598,
  "kseen": 599,
  "\u2581M": 600,
  "\u2581Kiitos": 601,
  "\u2581Hey": 602,
  "de": 603,
  "sen": 604,
  "\u2581vaan": 605,
  "\u2581home": 606,
  "isi": 607,
  "\u2581possible": 608,
  "\u2581name": 609,
  "\u2581k\u00e4ytt\u00e4\u00e4": 610,
  "D": 611,
  "\u2581ensure": 612,
  "\u2581regard": 613,
  "\u2581Komissio": 614,
  "\u2581prosenttia": 615,
  "\u2581call": 616,
  "\u2581Sen": 617,
  "\u2581during": 618,
  "\u2581referred": 619,
  "\u2581ty\u00f6": 620,
  "ki": 621,
  "\u2581authorities": 622,
  "\u2581t\u00e4ytyy": 623,
  "tu": 624,
  "\u2581certain": 625,
  "\u2581another": 626,
  "\u258114": 627,
  "\u2581believe": 628,
  "\u2581T\u00e4ss\u00e4": 629,
  "\u2581around": 630,
  "\u2581therefore": 631,
  "taan": 632,
  "\u2581Kaikki": 633,
  "\u258117": 634,
  "\u2581different": 635,
  "\u2581olivat": 636,
  "\u2581Just": 637,
  "\u2581tuo": 638,
  "\u2581Ne": 639,
  "\u2581ettei": 640,
  "\u2581country": 641,
  "\u2581every": 642,
  "\u2581muut": 643,
  "\u258116": 644,
  "\u2581found": 645,
  "\u2581Decision": 646,
  "\u2581sinut": 647,
  "the": 648,
  "\u2581common": 649,
  "\u2581already": 650,
  "\u2581...": 651,
  "\u2581sanoi": 652,
  "\u2581vastaan": 653,
  "\u258113": 654,
  "\u2581en\u00e4\u00e4": 655,
  "\u258124": 656,
  "\u2581Mik\u00e4": 657,
  "\u2581thought": 658,
  "\u2581m\u00e4\u00e4r\u00e4": 659,
  "\u2581course": 660,
  "\u2581always": 661,
  "\u2581THE": 662,
  "\u2581tiedot": 663,
  "\u2581anything": 664,
  "\u2581II": 665,
  "\u2581high": 666,
  "\u2581area": 667,
  "\u2581n\u00e4in": 668,
  "\u2581away": 669,
  "\u2581night": 670,
  "\u2581minut": 671,
  "\u2581saada": 672,
  "j\u00e4": 673,
  "sin": 674,
  "\u2581t\u00e4st\u00e4": 675,
  "\u2581okay": 676,
  "\u2581might": 677,
  "\u2581available": 678,
  "da": 679,
  "\u2581i": 680,
  "\u2581Are": 681,
  "tin": 682,
  "\u2581human": 683,
  "ttu": 684,
  "M": 685,
  "th": 686,
  "\u2581Not": 687,
  "\u2581Jehovah": 688,
  "kaan": 689,
  "\u2581jota": 690,
  "\u2581perusteella": 691,
  "\u2581given": 692,
  "mis": 693,
  "\u2581account": 694,
  "\u2581koskevan": 695,
  "p": 696,
  "\u2581law": 697,
  "\u2581talk": 698,
  "x": 699,
  "ty": 700,
  "\u2581enemm\u00e4n": 701,
  "\u2581done": 702,
  "ti": 703,
  "ri": 704,
  "\u2581Treaty": 705,
  "\u2581takaisin": 706,
  "ku": 707,
  "\u2581ilman": 708,
  "\u2581siin\u00e4": 709,
  "\u2581basis": 710,
  "\u2581third": 711,
  "\u2581best": 712,
  "\".": 713,
  "\u2581vuotta": 714,
  "\u2581non": 715,
  "me": 716,
  "\u2581noin": 717,
  "\u2581/": 718,
  "\u2581T\u00e4m\u00e4n": 719,
  "\u2581application": 720,
  "\u2581t\u00e4h\u00e4n": 721,
  "\u2581product": 722,
  "\u2581H": 723,
  "\u2581Can": 724,
  "\u2581direktiivin": 725,
  "la": 726,
  "\u2581money": 727,
  "ina": 728,
  "\u2581together": 729,
  "\u2581V": 730,
  "\u2581ajan": 731,
  "4": 732,
  "\u2581Finland": 733,
  "\u2581told": 734,
  "\u2581since": 735,
  "\u2581days": 736,
  "\u2581Re": 737,
  "\u2581change": 738,
  "\u2581decision": 739,
  "\u258150": 740,
  "\u2581business": 741,
  "tt\u00e4": 742,
  "\u2581rights": 743,
  "\u2581keep": 744,
  "\u2581Jumalan": 745,
  "ra": 746,
  "\u2581Kyll\u00e4": 747,
  "\u2581siis": 748,
  "\u2581protection": 749,
  "\u2581control": 750,
  "\u2581today": 751,
  "han": 752,
  "\u2581kind": 753,
  "\u2581second": 754,
  "\u2581working": 755,
  "\u2581least": 756,
  "\u2581Thank": 757,
  "\u2581olemme": 758,
  "\u2581Look": 759,
  "\u2581view": 760,
  "\u2581while": 761,
  "\u2581service": 762,
  "\u2581ever": 763,
  "\u2581million": 764,
  "\u2581R": 765,
  "lt\u00e4": 766,
  "\u2581toiminta": 767,
  "H": 768,
  "\u2581old": 769,
  "\u2581provide": 770,
  "\u2581patients": 771,
  "\u2581avulla": 772,
  "\u2581risk": 773,
  "\u258121": 774,
  "\u2581Oletko": 775,
  "\u2581m": 776,
  "\u2581t\u00e4nne": 777,
  "\u2581energy": 778,
  "\u2581aika": 779,
  "\u2581question": 780,
  "ton": 781,
  "\u2581Your": 782,
  "\u2013": 783,
  "\u2581specific": 784,
  "\u2581h\u00e4nelle": 785,
  "\u2581juuri": 786,
  "\u2581However": 787,
  "\u2581koskaan": 788,
  "kaa": 789,
  "\u2581activities": 790,
  "\u2581action": 791,
  "\u2581jolla": 792,
  "\u2581free": 793,
  "do": 794,
  "\u2581based": 795,
  "\u2581proposal": 796,
  "sten": 797,
  "\u2581muiden": 798,
  "\u2581tiet\u00e4\u00e4": 799,
  "mi": 800,
  "at": 801,
  "\u2581concerned": 802,
  "di": 803,
  "\u2581person": 804,
  "\u2581Koska": 805,
  "\u2581further": 806,
  "\u2581whole": 807,
  "\u2581requirements": 808,
  "\u2581100": 809,
  "\u2581fact": 810,
  "\u2581appropriate": 811,
  "sopimuksen": 812,
  "\u2581At": 813,
  "\u2581adopted": 814,
  "\u2581children": 815,
  "\u2581Jesus": 816,
  "miseksi": 817,
  "\u2581halua": 818,
  "ro": 819,
  "\u2581force": 820,
  "\u2581siell\u00e4": 821,
  "\u2581cooperation": 822,
  "\u2581taking": 823,
  "\u2581future": 824,
  "\u2581joissa": 825,
  "\u2581having": 826,
  "\u2581family": 827,
  "\u2581paragraph": 828,
  "\u2581international": 829,
  "\u2581programme": 830,
  "\u2581Nyt": 831,
  "\u258122": 832,
  "\u2581water": 833,
  "\u2581next": 834,
  "\u2581aikaa": 835,
  "\u2581sopimuksen": 836,
  "\u2581feel": 837,
  "\u25812000": 838,
  "P": 839,
  "\u2581provisions": 840,
  "\u2581Haluan": 841,
  "\u2581maan": 842,
  "\u2581respect": 843,
  "\u2581n\u00e4m\u00e4": 844,
  "\u2581yhteydess\u00e4": 845,
  "\u2581p\u00e4\u00e4": 846,
  "\u2581real": 847,
  "K": 848,
  "ers": 849,
  "O": 850,
  "\u2581Arvoisa": 851,
  "\u2581security": 852,
  "llinen": 853,
  "\u258131": 854,
  "\u2581nothing": 855,
  "malla": 856,
  "mo": 857,
  "\u2581j\u00e4sen": 858,
  "\u2581These": 859,
  "\u2581Good": 860,
  "\u2581came": 861,
  "\u2581New": 862,
  "amp": 863,
  "\u2581problem": 864,
  "\u2581until": 865,
  "\u2581toimi": 866,
  "\u258128": 867,
  "\u2581treatment": 868,
  "\u2581tuli": 869,
  "se": 870,
  "\u2581auttaa": 871,
  "\u2581whether": 872,
  "\u2581health": 873,
  "\u2581sector": 874,
  "\u2581legal": 875,
  "\u2581La": 876,
  "\u2581left": 877,
  "\u2022": 878,
  "\u25811.": 879,
  "pe": 880,
  "\u2581men": 881,
  "\u2581puhemies": 882,
  "\u2581general": 883,
  "\u2581far": 884,
  "\u2581puolesta": 885,
  "\u2581yhdess\u00e4": 886,
  "ks": 887,
  "\u2581care": 888,
  "\u2581Meid\u00e4n": 889,
  "tus": 890,
  "\u2581house": 891,
  "\u2581subject": 892,
  "\u2581areas": 893,
  "f": 894,
  "\u2581open": 895,
  "\u2581able": 896,
  "\u2581implementation": 897,
  "li": 898,
  "\u2581Sin\u00e4": 899,
  "\u2581cannot": 900,
  "\u2581lot": 901,
  "\u2581December": 902,
  "\u2581la": 903,
  "\u2581Minulla": 904,
  "\u2581please": 905,
  "\u2581show": 906,
  "\u2581management": 907,
  "\u2581situation": 908,
  "\u2581production": 909,
  "\u2581sir": 910,
  "\u00f6": 911,
  "\u2581months": 912,
  "\u2581Minun": 913,
  "\u2581oltava": 914,
  "\u2581called": 915,
  "\u2581full": 916,
  "\u2581process": 917,
  "\u2581everything": 918,
  "\u2581guy": 919,
  "\u2581EUR": 920,
  "\u2581less": 921,
  "\u2581muuta": 922,
  "\u2581annettu": 923,
  "\u2581trade": 924,
  "\u2581One": 925,
  "\u2581vaikka": 926,
  "\u2581kautta": 927,
  "\u2581body": 928,
  "\u2581Komission": 929,
  "\u2581Who": 930,
  "\u2581vai": 931,
  "+": 932,
  "\u2581Then": 933,
  "\u2581sorry": 934,
  "\u2581OF": 935,
  "\u2581matter": 936,
  "\u2581Lis\u00e4ksi": 937,
  "\u2581todella": 938,
  "\u2581liitteess\u00e4": 939,
  "G": 940,
  "\u258123": 941,
  "\u2581power": 942,
  "pi": 943,
  "\u2581procedure": 944,
  "\u2581hand": 945,
  "\u2581Hyv\u00e4": 946,
  "\u2581needs": 947,
  "v": 948,
  "\u2581k\u00e4ytt\u00f6\u00f6n": 949,
  "\u2581won": 950,
  "\u2581apply": 951,
  "fi": 952,
  "set": 953,
  "\u2581coming": 954,
  "misesta": 955,
  "\u258127": 956,
  "\u2581car": 957,
  "\u2581v\u00e4lill\u00e4": 958,
  "\u2581voit": 959,
  "\u2581eritt\u00e4in": 960,
  "\u2581yet": 961,
  "\u2581edelleen": 962,
  "F": 963,
  "\u2581relevant": 964,
  "\u2581eli": 965,
  "\u2581k\u00e4ytt\u00f6": 966,
  "\u2581t\u00e4yt\u00e4nt\u00f6\u00f6npano": 967,
  "\u2581lis\u00e4ksi": 968,
  "\u2581doesn": 969,
  "\u2581lis\u00e4\u00e4": 970,
  "ETY": 971,
  "\u2581food": 972,
  "een": 973,
  "h\u00e4n": 974,
  "\u2581ask": 975,
  "\u2581value": 976,
  "hi": 977,
  "\u2581Ehk\u00e4": 978,
  "\u2581muita": 979,
  "\u2581few": 980,
  "\u2581U": 981,
  "\u2581Tied\u00e4n": 982,
  "\u2581enough": 983,
  "\u2581An": 984,
  "ic": 985,
  "s\u00e4": 986,
  "\u2581uudelleen": 987,
  "\u2581date": 988,
  "able": 989,
  "\u2581safety": 990,
  "\u2581ymp\u00e4rist\u00f6": 991,
  "\u2581wanted": 992,
  "\u2581group": 993,
  "vien": 994,
  "essa": 995,
  "ha": 996,
  "\u2581wrong": 997,
  "\u2581tavalla": 998,
  "\u2581example": 999,
  "\u2581start": 1000,
  "\u2581sinulla": 1001,
  "\u2581ago": 1002,
  "\u00e9": 1003,
  "\u2581asia": 1004,
  "\u2581idea": 1005,
  "\u2581t\u00e4ll\u00e4": 1006,
  "isen": 1007,
  "\u2581Olemme": 1008,
  "\u2581access": 1009,
  "\u258126": 1010,
  "iss\u00e4": 1011,
  "\u2581agreement": 1012,
  "\u2581leave": 1013,
  "\u2581opinion": 1014,
  "\u2581transport": 1015,
  "\u2581clear": 1016,
  "\u2581hear": 1017,
  "--": 1018,
  "ation": 1019,
  "ns\u00e4": 1020,
  "\u2581o": 1021,
  "\u2581sovelletaan": 1022,
  "\u2581blood": 1023,
  "\u2581concerning": 1024,
  "*": 1025,
  "\u2581k\u00e4y": 1026,
  "\u2581job": 1027,
  "\u2581oikeus": 1028,
  "lo": 1029,
  "\u2581kaiken": 1030,
  "\u2581guys": 1031,
  "\u2581took": 1032,
  "isiin": 1033,
  "\u2581Emme": 1034,
  "iset": 1035,
  "\u258129": 1036,
  "\u2581vasta": 1037,
  "\u2581artiklassa": 1038,
  "\u2581understand": 1039,
  "iin": 1040,
  "\u2581research": 1041,
  "\u2581Sinun": 1042,
  "W": 1043,
  "\u2581Get": 1044,
  "\u2581using": 1045,
  "\u2581United": 1046,
  "\u25812006": 1047,
  "\u2581l": 1048,
  "\u2581yht\u00e4": 1049,
  "\u2581happened": 1050,
  "\u2581mind": 1051,
  "\u25812008": 1052,
  "EEC": 1053,
  "\u2581seen": 1054,
  "\u2581Did": 1055,
  "\u2581women": 1056,
  "ry": 1057,
  "\u2581Go": 1058,
  "\u2581costs": 1059,
  "\u2581industry": 1060,
  "\u25812002": 1061,
  "\u2581price": 1062,
  "el": 1063,
  "\u2581type": 1064,
  "\u2581live": 1065,
  "\u2581uusi": 1066,
  "\u2581present": 1067,
  "\u2581un": 1068,
  "\u2581political": 1069,
  "\u2581quality": 1070,
  "_": 1071,
  "\u2581position": 1072,
  "up": 1073,
  "\u258140": 1074,
  "\u2581rahoitus": 1075,
  "\u2581total": 1076,
  "\u2581joten": 1077,
  "\u2581ainoastaan": 1078,
  "\u2581Court": 1079,
  "\u2581once": 1080,
  "\u2581framework": 1081,
  "\u2581big": 1082,
  "w": 1083,
  "\u2581May": 1084,
  "\u2581menn\u00e4": 1085,
  "\u2581Agreement": 1086,
  "\u2581maailman": 1087,
  "\u2581went": 1088,
  "\u2581side": 1089,
  "\u2581g": 1090,
  "\u2581form": 1091,
  "L": 1092,
  "\u2581become": 1093,
  "ter": 1094,
  "\u2581meet": 1095,
  "\u2581increase": 1096,
  "\u2581mies": 1097,
  "\u2581lis\u00e4": 1098,
  "he": 1099,
  "\u2581company": 1100,
  "\u2581making": 1101,
  "\u2581t\u00e4ysin": 1102,
  "\u2581N\u00e4in": 1103,
  "\u2581c": 1104,
  "\u2581v\u00e4h\u00e4n": 1105,
  "\u2581Te": 1106,
  "\u2581usko": 1107,
  "\u2581asetus": 1108,
  "ttiin": 1109,
  "\u2581tutkimus": 1110,
  "z": 1111,
  "\u2581yh\u00e4": 1112,
  "\u2581required": 1113,
  "\u25812005": 1114,
  "\u2581koskeva": 1115,
  "\u2581t\u00e4rke\u00e4\u00e4": 1116,
  "\u2581bad": 1117,
  "\u2581above": 1118,
  "\u2581dead": 1119,
  "\u2581euroa": 1120,
  "\u2581interest": 1121,
  "yn": 1122,
  "m\u00e4\u00e4n": 1123,
  "ment": 1124,
  "\u2581systems": 1125,
  "\u2581amount": 1126,
  "elle": 1127,
  "\u2581small": 1128,
  "k\u00e4\u00e4n": 1129,
  "\u2581kaikkien": 1130,
  "\u2581kai": 1131,
  "\u2581someone": 1132,
  "\u2581file": 1133,
  "R": 1134,
  "\u2581Tuo": 1135,
  "\u2581kiinni": 1136,
  "\u2581local": 1137,
  "isten": 1138,
  "7": 1139,
  "\u2581talking": 1140,
  "kki": 1141,
  "EN": 1142,
  "\u25812004": 1143,
  "\u2581result": 1144,
  "\u2581cases": 1145,
  "\u2581W": 1146,
  "\u2581kolme": 1147,
  "\u2581liian": 1148,
  "\u2581v\u00e4hint\u00e4\u00e4n": 1149,
  "\u2581tekee": 1150,
  "\u2581line": 1151,
  "nyt": 1152,
  "\u2581hope": 1153,
  "\u2581says": 1154,
  "10": 1155,
  "\u2581liittyv\u00e4t": 1156,
  "\u2581June": 1157,
  "\u2581stop": 1158,
  "\u2581father": 1159,
  "\u2581sanoa": 1160,
  "\u2581issue": 1161,
  "sia": 1162,
  "\u2581tuki": 1163,
  "\u2581else": 1164,
  "\u2581edes": 1165,
  "\u2581main": 1166,
  "\u2581muun": 1167,
  "\u2581With": 1168,
  "\u2581oikein": 1169,
  "\u2581applicable": 1170,
  "\u2581training": 1171,
  "\u2581kerran": 1172,
  "\u2581Maybe": 1173,
  "\u2581Please": 1174,
  "\u2581room": 1175,
  "\u2581voisi": 1176,
  "\u2581Anna": 1177,
  "\u2581Herra": 1178,
  "\u2581play": 1179,
  "\u25812003": 1180,
  "min": 1181,
  "\u2581single": 1182,
  "\u2581times": 1183,
  "\u2581looking": 1184,
  "neen": 1185,
  "\u2581rate": 1186,
  "\u2581persons": 1187,
  "\u2581trying": 1188,
  "\u2581koskevien": 1189,
  "\u2581taas": 1190,
  "seen": 1191,
  "uksen": 1192,
  "\u2581plan": 1193,
  "\u2581considered": 1194,
  "\u2581p\u00e4\u00e4t\u00f6ksen": 1195,
  "\u2581suuri": 1196,
  "\u2581esimerkiksi": 1197,
  "\u2581annetun": 1198,
  "via": 1199,
  "\u2581final": 1200,
  "\u2581siten": 1201,
  "\u2581meit\u00e4": 1202,
  "\u2581H\u00e4nen": 1203,
  "\u2581special": 1204,
  "ho": 1205,
  "\u2581000": 1206,
  "\u2581established": 1207,
  "\u2581problems": 1208,
  "\u2581tulla": 1209,
  "\u25810": 1210,
  "\u2581saw": 1211,
  "\u2581J": 1212,
  "\u2581Ha": 1213,
  "\u2581saattaa": 1214,
  "\u2581miss\u00e4": 1215,
  "\u2581k\u00e4ytet\u00e4\u00e4n": 1216,
  "\u2581Or": 1217,
  "\u2581bring": 1218,
  "V": 1219,
  "5": 1220,
  "\u2581head": 1221,
  "\u2581Ra": 1222,
  "\u2581getting": 1223,
  "\u25812007": 1224,
  "\u2581kyll\u00e4": 1225,
  "\u2581p\u00e4iv\u00e4n": 1226,
  "\u2581results": 1227,
  "\u2581light": 1228,
  "\u2581yhden": 1229,
  "\u2581erityis": 1230,
  "\u2581Al": 1231,
  "\u2581tietoja": 1232,
  "\u20ac": 1233,
  "\u2581technical": 1234,
  "p\u00e4": 1235,
  "\u2581kuitenkaan": 1236,
  "vi": 1237,
  "\u2581stay": 1238,
  "\u2581Bible": 1239,
  "\u2581n\u00e4iden": 1240,
  "\u2581authority": 1241,
  "\u25812010": 1242,
  "\u2581ehk\u00e4": 1243,
  "\u2581Because": 1244,
  "\u2581perus": 1245,
  "\u2581mm": 1246,
  "\u2581heart": 1247,
  "ur": 1248,
  "\u2581Katso": 1249,
  "lu": 1250,
  "\",": 1251,
  "\u2581Miss\u00e4": 1252,
  "\u2581legislation": 1253,
  "\u2581son": 1254,
  "\u2581Of": 1255,
  "\u2581p\u00e4\u00e4t\u00f6s": 1256,
  "\u2581include": 1257,
  "\u2581fine": 1258,
  "ilta": 1259,
  "i\u00e4": 1260,
  "Y": 1261,
  "\u2581joku": 1262,
  "\u25812009": 1263,
  "po": 1264,
  "\u2581kill": 1265,
  "pu": 1266,
  "\u2581tulisi": 1267,
  "=": 1268,
  "\u2581mahdollista": 1269,
  "\u2581tarvitse": 1270,
  "\u2581meille": 1271,
  "\u2581p\u00e4\u00e4st\u00e4": 1272,
  "\u2581field": 1273,
  "\u2581tieto": 1274,
  "\u2581uuden": 1275,
  "\u2581miljoonaa": 1276,
  "\u2581young": 1277,
  "v\u00e4": 1278,
  "\u2581terms": 1279,
  "\u2581toimia": 1280,
  "\u2581hours": 1281,
  "\u2581kuuluu": 1282,
  "\u2581kuinka": 1283,
  "\u2581employment": 1284,
  "massa": 1285,
  "\u2581t\u00e4n\u00e4\u00e4n": 1286,
  "\u2581niist\u00e4": 1287,
  "\u2581July": 1288,
  "ED": 1289,
  "\u2581p\u00e4iv\u00e4": 1290,
  "\u2581nimi": 1291,
  "\u2581ulos": 1292,
  "\u2581four": 1293,
  "\u2581close": 1294,
  "ity": 1295,
  "\u2581perustamis": 1296,
  "\u2581girl": 1297,
  "\u2581Having": 1298,
  "\u2581Here": 1299,
  "isia": 1300,
  "\u2581pro": 1301,
  "\u2581tehnyt": 1302,
  "\u2581effect": 1303,
  "\u2581haluat": 1304,
  "\u25812012": 1305,
  "\u2581companies": 1306,
  "\u2581hell": 1307,
  "\u2581viime": 1308,
  "\u2581game": 1309,
  "\u2581emme": 1310,
  "\u2581heard": 1311,
  "\u2581Helsinki": 1312,
  "\u2581yourself": 1313,
  "\u2581January": 1314,
  "\u2581Kuka": 1315,
  "ill\u00e4": 1316,
  "\u2581actually": 1317,
  "\u2581tapauksessa": 1318,
  "\u2581luo": 1319,
  "\u25814.": 1320,
  "\u2581five": 1321,
  "\u2581table": 1322,
  "\u2581either": 1323,
  "6": 1324,
  "\u2581tehty": 1325,
  "\u2581Jumala": 1326,
  "\u2581saying": 1327,
  "\u2581air": 1328,
  "ar": 1329,
  "\u2581De": 1330,
  "\u2581hard": 1331,
  "il": 1332,
  "\u2581tietojen": 1333,
  "The": 1334,
  "\u2581school": 1335,
  "j\u00e4rjestelm\u00e4n": 1336,
  "\u2581try": 1337,
  "\u2581true": 1338,
  "\u2581co": 1339,
  "\u2581members": 1340,
  "\u2581talous": 1341,
  "\u2581due": 1342,
  "\u2581euro": 1343,
  "):": 1344,
  "\u2581remember": 1345,
  "\u2581effects": 1346,
  "\u2581budget": 1347,
  "\u2581current": 1348,
  "\u2581institutions": 1349,
  "\u2581herra": 1350,
  "\u2581III": 1351,
  "\u2581kertaa": 1352,
  "\u2581resources": 1353,
  "alan": 1354,
  "\u2581friend": 1355,
  "\u2581state": 1356,
  "\u2581kannalta": 1357,
  "mist\u00e4": 1358,
  "\u2581silloin": 1359,
  "\u2581heit\u00e4": 1360,
  "\u2581olevien": 1361,
  "\u2581fucking": 1362,
  "\u2581upon": 1363,
  "esta": 1364,
  "\u2581d": 1365,
  "\u00b0": 1366,
  "\u2581death": 1367,
  "\u2581miksi": 1368,
  "\u2581test": 1369,
  "\u2581teht\u00e4v\u00e4": 1370,
  "\u2581k": 1371,
  "\u2581mother": 1372,
  "\u2581turvallisuus": 1373,
  "\u25812013": 1374,
  "\u2581dose": 1375,
  "\u2581amended": 1376,
  "\u2581issues": 1377,
  "\u2581pid\u00e4": 1378,
  "\u2581valvonta": 1379,
  "kka": 1380,
  "\u2581mielt\u00e4": 1381,
  "\u2581reason": 1382,
  "\u2581later": 1383,
  "\u2581Tule": 1384,
  "\u2581n\u00e4hd\u00e4": 1385,
  "\u2581Eik\u00f6": 1386,
  "\u2581points": 1387,
  "and": 1388,
  "\u2581related": 1389,
  "\u2581vastaa": 1390,
  "\u2581face": 1391,
  "20": 1392,
  "\u2581pay": 1393,
  "go": 1394,
  "\u2581meeting": 1395,
  "ksen": 1396,
  "aan": 1397,
  "\u2581Yksi": 1398,
  "\u2581ku": 1399,
  "ella": 1400,
  "\u258160": 1401,
  "\u2581Eurooppa": 1402,
  "\u2581role": 1403,
  "\u2581tule": 1404,
  "\u2581olemassa": 1405,
  "ttava": 1406,
  "\u2581Ma": 1407,
  "\u2581move": 1408,
  "\u2581Vaikka": 1409,
  "lin": 1410,
  "\u2581Voi": 1411,
  "\u2581toisen": 1412,
  "\u2581study": 1413,
  "\u2581list": 1414,
  "\u2581key": 1415,
  "ess\u00e4": 1416,
  "\u2581Pa": 1417,
  "\u2581toinen": 1418,
  "\u2581project": 1419,
  "\u2581kyse": 1420,
  "\u2581environmental": 1421,
  "ul": 1422,
  "\u2581maiden": 1423,
  "\u2581continue": 1424,
  "k\u00e4": 1425,
  "\u2581others": 1426,
  "\u2581procedures": 1427,
  "em": 1428,
  "\u2581impact": 1429,
  "\u2581puheenjohtaja": 1430,
  "\u2581Sitten": 1431,
  "\u2581programmes": 1432,
  "\u2581katsoo": 1433,
  "ce": 1434,
  "\u2581puhua": 1435,
  "\u2581j\u00e4\u00e4": 1436,
  "\u2581N\u00e4m\u00e4": 1437,
  "\u2581aikaan": 1438,
  "\u25811999": 1439,
  "\u00f6n": 1440,
  "\u2581voimme": 1441,
  "\u2581maa": 1442,
  "\u2581laid": 1443,
  "\u2581effective": 1444,
  "\u2581Ent\u00e4": 1445,
  "\u2581aivan": 1446,
  "\u2581government": 1447,
  "\u2581wasn": 1448,
  "\u2581Anteeksi": 1449,
  "\u2581isn": 1450,
  "\u2581projects": 1451,
  "\u2581haluaa": 1452,
  "\u2581takia": 1453,
  "\u2581tukea": 1454,
  "\u2581:": 1455,
  "\u2581March": 1456,
  "\u2581growth": 1457,
  "\u2581koskee": 1458,
  "\u2581makes": 1459,
  "%": 1460,
  "\u2581pa": 1461,
  "\u2581kahden": 1462,
  "men": 1463,
  "co": 1464,
  "\u2581varmasti": 1465,
  "\u2581n\u00e4ytt\u00e4\u00e4": 1466,
  "\u2581teet": 1467,
  "\u2581Siin\u00e4": 1468,
  "\u2581deal": 1469,
  "\u2581woman": 1470,
  "\u2581goods": 1471,
  "iksi": 1472,
  "\u2581competition": 1473,
  "\u2581asti": 1474,
  "\u2581assessment": 1475,
  "\u2581ta": 1476,
  "\u2581joulukuuta": 1477,
  "\u2581kunnossa": 1478,
  "\u2581teki": 1479,
  "\u2581By": 1480,
  "\u2581according": 1481,
  "\u2581alalla": 1482,
  "\u2581addition": 1483,
  "as": 1484,
  "mien": 1485,
  "\u2581pian": 1486,
  "\u2581jopa": 1487,
  "\u2581See": 1488,
  "\u2581investment": 1489,
  "ge": 1490,
  "\u2581October": 1491,
  "\u2581tahansa": 1492,
  "\u2581soon": 1493,
  "\u2581environment": 1494,
  "\u2581pi": 1495,
  "\u2581large": 1496,
  "\u2581sis\u00e4\u00e4n": 1497,
  "\u2581experience": 1498,
  "\u2581heti": 1499,
  "be": 1500,
  "\u2581regional": 1501,
  "\u2581seuraavasti": 1502,
  "isin": 1503,
  "\u2581ma": 1504,
  "\u25812001": 1505,
  "OJ": 1506,
  "\u2581wait": 1507,
  "\u2581increased": 1508,
  "\u2581tax": 1509,
  "\u2581however": 1510,
  "\u2581words": 1511,
  "mia": 1512,
  "\u2581Selv\u00e4": 1513,
  "\u2581ihmiset": 1514,
  "\u2581Right": 1515,
  "\u2581usein": 1516,
  "\u2581run": 1517,
  "ttaa": 1518,
  "\u2581competent": 1519,
  "\u2581Mist\u00e4": 1520,
  "\u2581needed": 1521,
  "\u2581Co": 1522,
  "\u2581kokonais": 1523,
  "\u2581knew": 1524,
  "\u2581levels": 1525,
  "\u2581markkina": 1526,
  "\u2581wanna": 1527,
  "\u2581teille": 1528,
  "\u25812011": 1529,
  "\u2581teit\u00e4": 1530,
  "\u2581After": 1531,
  "\u2581among": 1532,
  "\u2581Group": 1533,
  "\u2581alone": 1534,
  "\u2581alueella": 1535,
  "\u2581John": 1536,
  "U": 1537,
  "\u2581carried": 1538,
  "siin": 1539,
  "\u2581ha": 1540,
  "\u2581objectives": 1541,
  "\u2581ra": 1542,
  "\u2581doctor": 1543,
  "\u2581oleva": 1544,
  "\u2581valmis": 1545,
  "hin": 1546,
  "\u2581purpose": 1547,
  "\u2581pre": 1548,
  "\u25812015": 1549,
  "\u2581proposed": 1550,
  "\u2581meill\u00e4": 1551,
  "\u2581vero": 1552,
  "esi": 1553,
  "\u2581j\u00e4senvaltion": 1554,
  "\u2581ep\u00e4": 1555,
  "\u2581Jehovan": 1556,
  "\u2581education": 1557,
  "\u2581approach": 1558,
  "\u2581policies": 1559,
  "\u2581tarpeen": 1560,
  "\u2581EC": 1561,
  "\u25812014": 1562,
  "\u2581prices": 1563,
  "\u2581asiassa": 1564,
  "\u2581known": 1565,
  "\u2581age": 1566,
  "\u2581Republic": 1567,
  "\u2581serious": 1568,
  "00": 1569,
  "sto": 1570,
  "\u2581tapahtui": 1571,
  "\u2581citizens": 1572,
  "\u2581Kuinka": 1573,
  "\u2581Sit\u00e4": 1574,
  "\u25812016": 1575,
  "\u2581additional": 1576,
  "\u2581responsible": 1577,
  "\u2581uh": 1578,
  "\u2581kotiin": 1579,
  "\u2581particularly": 1580,
  "\u2581minutes": 1581,
  "\u2581teid\u00e4n": 1582,
  "\u2581reference": 1583,
  "ir": 1584,
  "\u266a": 1585,
  "\u2581t\u00e4rke\u00e4": 1586,
  "\u2581haluan": 1587,
  "\u2581wife": 1588,
  "\u2581read": 1589,
  "\u2581involved": 1590,
  "\u2581tapahtuu": 1591,
  "\u2581turn": 1592,
  "ness": 1593,
  "see": 1594,
  "\u2581Mo": 1595,
  "\u2581week": 1596,
  "\u2581alle": 1597,
  "\u2581cost": 1598,
  "\u2581request": 1599,
  "\u2581Na": 1600,
  "\u2581outside": 1601,
  "\u2581kehitys": 1602,
  "\u2581standards": 1603,
  "\u2581share": 1604,
  "\u2581nice": 1605,
  "\u2581johon": 1606,
  "\u2581kaikkia": 1607,
  "\u2581otetaan": 1608,
  "\u2581onko": 1609,
  "\u2581minulla": 1610,
  "\u2581maybe": 1611,
  "\u2581society": 1612,
  "\u2581morning": 1613,
  "am": 1614,
  ");": 1615,
  "\u2581Be": 1616,
  "\u2581sis\u00e4lt\u00e4\u00e4": 1617,
  "\u2581heid\u00e4t": 1618,
  "\u2581asked": 1619,
  "\u2581vie": 1620,
  "\u2581party": 1621,
  "\u2581progress": 1622,
  "\u2581ready": 1623,
  "\u2581establishing": 1624,
  "\u2581internal": 1625,
  "\u2581Y": 1626,
  "\u2581child": 1627,
  "\u258190": 1628,
  "son": 1629,
  "19": 1630,
  "\u2581word": 1631,
  "\u2581vaikuttaa": 1632,
  "\u2581parties": 1633,
  "\u2581ensimm\u00e4isen": 1634,
  "tko": 1635,
  "\u2581changes": 1636,
  "\u2581mukana": 1637,
  "\u2581Kuten": 1638,
  "\u2581artikla": 1639,
  "\u2581killed": 1640,
  "\u2581thereof": 1641,
  "\u2581muista": 1642,
  "J": 1643,
  "politiikan": 1644,
  "teen": 1645,
  "\u2581gave": 1646,
  "tit": 1647,
  "\u2581tasolla": 1648,
  "\u2581asiaa": 1649,
  "\u2581Le": 1650,
  "\u2581major": 1651,
  "lainen": 1652,
  "\u2581enint\u00e4\u00e4n": 1653,
  "\u2581shit": 1654,
  "dy": 1655,
  "\u2581half": 1656,
  "\u2581ala": 1657,
  "\u2581city": 1658,
  "\u2581equipment": 1659,
  "\u2581Tai": 1660,
  "50": 1661,
  "\u2581individual": 1662,
  "nti": 1663,
  "\u2581private": 1664,
  "\u2581tarkoitettu": 1665,
  "\u2581kertoa": 1666,
  "\u2581anti": 1667,
  "\u2581Uh": 1668,
  "\u2581friends": 1669,
  "\u2581Thanks": 1670,
  "\u2581oma": 1671,
  "\u2581thank": 1672,
  "\u2581asian": 1673,
  "\u2581kyseisen": 1674,
  "\u2581ollen": 1675,
  "\u2581Meill\u00e4": 1676,
  "\u2581sai": 1677,
  "\u2581though": 1678,
  "\u2581j\u00e4senvaltioissa": 1679,
  "\u2581longer": 1680,
  "\u2581received": 1681,
  "\u2581November": 1682,
  "\u2581uusia": 1683,
  "um": 1684,
  "ck": 1685,
  "\u2581vuosi": 1686,
  "ion": 1687,
  "\u2581sanoo": 1688,
  "\u2581ex": 1689,
  "\u2581tietoa": 1690,
  "\u2581suoraan": 1691,
  "\u2581)": 1692,
  "\u2581kirja": 1693,
  "\u2581di": 1694,
  "ga": 1695,
  "\u2581brought": 1696,
  "\u2581Mrs": 1697,
  "ile": 1698,
  "\u2581olette": 1699,
  "\u2581low": 1700,
  "\u2581April": 1701,
  "\u2581neuvosto": 1702,
  "\u2581samalla": 1703,
  "\u2581living": 1704,
  "\u2581Muut": 1705,
  "\u2581often": 1706,
  "mpi": 1707,
  "llis": 1708,
  "\u2581Other": 1709,
  "\u2581capital": 1710,
  "\u2581nopeasti": 1711,
  "\u2581Hei": 1712,
  "\u2581mink\u00e4": 1713,
  "\u2581section": 1714,
  "\u2581Some": 1715,
  "15": 1716,
  "\u2581personal": 1717,
  "\u2581saanut": 1718,
  "\u2581sent": 1719,
  "30": 1720,
  "\u2581principle": 1721,
  "25": 1722,
  "\u2581September": 1723,
  "\u2581relating": 1724,
  "\u2581joista": 1725,
  "\u2581Ro": 1726,
  "\u2581wouldn": 1727,
  "\u2581content": 1728,
  "\u2581Jo": 1729,
  "\u2581bit": 1730,
  "\u2581koskevia": 1731,
  "tuksen": 1732,
  "q": 1733,
  "\u2581Our": 1734,
  "\u2581henkil\u00f6": 1735,
  "\u2581Siksi": 1736,
  "\u2581existing": 1737,
  "so": 1738,
  "\u2581parlamentti": 1739,
  "\u2581yhteen": 1740,
  "\u2581office": 1741,
  "\u2581kohtaan": 1742,
  "\u2581Vi": 1743,
  "mm": 1744,
  "\u2581lukien": 1745,
  "\u2581ml": 1746,
  "Q": 1747,
  "\u2581komissiolle": 1748,
  "\u2581tehdyn": 1749,
  "\u2581voin": 1750,
  "\u2581wants": 1751,
  "\u2581menness\u00e4": 1752,
  "\u2581my\u00f6hemmin": 1753,
  "\u2581energia": 1754,
  "\u2581Ho": 1755,
  "com": 1756,
  "\u2581active": 1757,
  "\u2581regards": 1758,
  "gen": 1759,
  "\u2581toiminnan": 1760,
  "\u2581several": 1761,
  "\u2581wish": 1762,
  "\u2581X": 1763,
  "\u2581significant": 1764,
  "tai": 1765,
  "ven": 1766,
  "\u2581various": 1767,
  "eksi": 1768,
  "maa": 1769,
  "\u2581l\u00e4pi": 1770,
  "\u2581voida": 1771,
  "\u2581Wait": 1772,
  "\u2581capacity": 1773,
  "\u2581gotta": 1774,
  "\u2581varma": 1775,
  "\u2581vesi": 1776,
  "\u2581sa": 1777,
  "\u2581is\u00e4": 1778,
  "\u2581directly": 1779,
  "\u2581meid\u00e4t": 1780,
  "\u2581criteria": 1781,
  "\u2581n\u00e4it\u00e4": 1782,
  "\u2581tullut": 1783,
  "\u2581fight": 1784,
  "\u2581similar": 1785,
  "\u2581tee": 1786,
  "esti": 1787,
  "\u2581questions": 1788,
  "\u2581ON": 1789,
  "\u2581heille": 1790,
  "\u2581comes": 1791,
  "\u2581siksi": 1792,
  "\u2581yritysten": 1793,
  "\u2581tarkoittaa": 1794,
  "$": 1795,
  "\u2581towards": 1796,
  "\u2581lead": 1797,
  "\u2581j\u00e4senvaltiot": 1798,
  "\u2581actions": 1799,
  "\u2581myself": 1800,
  "8": 1801,
  "\u2581f": 1802,
  "\u2581natural": 1803,
  "\u2581Hi": 1804,
  "\u2581ongelma": 1805,
  "\u2581olevat": 1806,
  "\u2581potential": 1807,
  "\u2581rest": 1808,
  "\u2581forward": 1809,
  "\u2581book": 1810,
  "\u2581lost": 1811,
  "ise": 1812,
  "\u2581pari": 1813,
  "\u2581baby": 1814,
  "ys": 1815,
  "\u2581kuka": 1816,
  "\u2581covered": 1817,
  "ili": 1818,
  "uksia": 1819,
  "\u2581greater": 1820,
  "\u2581Voit": 1821,
  "\u2581anyone": 1822,
  "\u2581josta": 1823,
  "\u2581nojalla": 1824,
  "kan": 1825,
  "\u2581p\u00e4iv\u00e4\u00e4": 1826,
  "ru": 1827,
  "\u2581included": 1828,
  "\u00e4\u00e4n": 1829,
  "\u2581land": 1830,
  "\u2581six": 1831,
  "\u2581sinusta": 1832,
  "\u2581granted": 1833,
  "\u2581allow": 1834,
  "\u2581v\u00e4li": 1835,
  "\u2581especially": 1836,
  "\u2581Man": 1837,
  "\u2581strategy": 1838,
  "\u258180": 1839,
  "\u2581material": 1840,
  "\u2581met": 1841,
  "tty": 1842,
  "\u2581valtion": 1843,
  "\u2581boy": 1844,
  "\u2581piti": 1845,
  "\u2581syy": 1846,
  "\u2581Christ": 1847,
  "m\u00e4": 1848,
  "os": 1849,
  "\u2581short": 1850,
  "\u2581ihmisten": 1851,
  "\u2581AND": 1852,
  "\u2581pieni": 1853,
  "\u2581English": 1854,
  "\u2581earth": 1855,
  "kseni": 1856,
  "it\u00e4": 1857,
  "0": 1858,
  "\u2581evidence": 1859,
  "\u2581General": 1860,
  "per": 1861,
  "\u2581thinking": 1862,
  "\u2581act": 1863,
  "\u2581Jeesus": 1864,
  "\u2581groups": 1865,
  "\u2581ty\u00f6t\u00e4": 1866,
  "\u258135": 1867,
  "\u2581nelj\u00e4": 1868,
  "\u2581Have": 1869,
  "\u2581weeks": 1870,
  "\u2581muu": 1871,
  "\u2581held": 1872,
  "\u2581Appendix": 1873,
  "\u2581die": 1874,
  "\u2581past": 1875,
  "ju": 1876,
  "\u2581Kingdom": 1877,
  "\u2581online": 1878,
  "\u2581auto": 1879,
  "\u2581maksu": 1880,
  "\u2581alakohdan": 1881,
  "\u2581gone": 1882,
  "\u2581review": 1883,
  "\u2581activity": 1884,
  "\u2581minusta": 1885,
  "ala": 1886,
  "ut": 1887,
  "\u2581Paul": 1888,
  "\u2581poika": 1889,
  "\u2581higher": 1890,
  "\u2581kauan": 1891,
  "\u2581Ta": 1892,
  "\u2581truth": 1893,
  "\u2581studies": 1894,
  "llista": 1895,
  "\u2581TV": 1896,
  "\u25811998": 1897,
  "vaa": 1898,
  "En": 1899,
  "\u2581cover": 1900,
  "\u2581osaa": 1901,
  "\u2581ainoa": 1902,
  "\u2581hi": 1903,
  "\u2581solution": 1904,
  "\u2581animals": 1905,
  "\u2581tuotanto": 1906,
  "\u2581address": 1907,
  "12": 1908,
  "\u2581tuotteiden": 1909,
  "\u2581yleis": 1910,
  "mu": 1911,
  "ary": 1912,
  "\u2581Olin": 1913,
  "\u2581Kerro": 1914,
  "\u2581Ri": 1915,
  "\u2581samaa": 1916,
  "\u2581paid": 1917,
  "\u2581alkaen": 1918,
  "\u2581yksin": 1919,
  "\u2581building": 1920,
  "ky": 1921,
  "ch": 1922,
  "\u2581easy": 1923,
  "\u2581Like": 1924,
  "\u2581animal": 1925,
  "rin": 1926,
  "sit": 1927,
  "\u2581check": 1928,
  "\u2581Neuvosto": 1929,
  "\u2581ihan": 1930,
  "\u2581_": 1931,
  "\u2581waste": 1932,
  "\u2581started": 1933,
  "\u2581debate": 1934,
  "\u2581purposes": 1935,
  "\u2581markets": 1936,
  "tetaan": 1937,
  "\u2581happy": 1938,
  "jo": 1939,
  "\u2581quite": 1940,
  "\u2581otettava": 1941,
  "\u2581basic": 1942,
  "\u2581nature": 1943,
  "\u2581everyone": 1944,
  "\u2581applied": 1945,
  "\u2581improve": 1946,
  "\u2581toimenpiteet": 1947,
  "IT": 1948,
  "\u2581v": 1949,
  "\u2581apua": 1950,
  "\u2581pretty": 1951,
  "\u2581door": 1952,
  "\u2581voitaisiin": 1953,
  "\u2581credit": 1954,
  "\u2581totta": 1955,
  "\u2581His": 1956,
  "tettava": 1957,
  "\u2581hold": 1958,
  "\u2581contact": 1959,
  "\u2581rather": 1960,
  "\u2581arvo": 1961,
  "\u2581antoi": 1962,
  "\u2581provides": 1963,
  "\u2581hyv\u00e4\u00e4": 1964,
  "\u2581guess": 1965,
  "\u2581kes\u00e4kuuta": 1966,
  "\u2581added": 1967,
  "term": 1968,
  "\u2581pysty": 1969,
  "\u2581assistance": 1970,
  "\u2581agricultural": 1971,
  "\u2581fuck": 1972,
  "\u2581kauppa": 1973,
  "ie": 1974,
  "\u2581Statistics": 1975,
  "aa": 1976,
  "\u2581kaikille": 1977,
  "\u2581themselves": 1978,
  "\u2581sinne": 1979,
  "AL": 1980,
  "\u2581Sa": 1981,
  "\u2581regions": 1982,
  "\u2581ihmisi\u00e4": 1983,
  "\u2581average": 1984,
  "\u2581yeah": 1985,
  "\u2581war": 1986,
  "\u2581gas": 1987,
  "\u2581instruments": 1988,
  "ca": 1989,
  "k\u00e4\u00e4": 1990,
  "ver": 1991,
  "\u2581korkea": 1992,
  "kset": 1993,
  "\u2581monitoring": 1994,
  "\u2581JA": 1995,
  "\u2581km": 1996,
  "\u2581phone": 1997,
  "\u2581below": 1998,
  "vo": 1999,
  "\u2581operation": 2000,
  "\u2581decisions": 2001,
  "\u2581attention": 2002,
  "lan": 2003,
  "\u2581kuukauden": 2004,
  "\u2581sopimus": 2005,
  "\u2581alue": 2006,
  "\u2581Economic": 2007,
  "\u2581T\u00e4t\u00e4": 2008,
  "tettiin": 2009,
  "\u2581works": 2010,
  "\u2581happen": 2011,
  "\u2581seuraavat": 2012,
  "\u2581n\u00e4hnyt": 2013,
  "\u2581mene": 2014,
  "\u2581voimaan": 2015,
  "\u2581funds": 2016,
  "\u2581menee": 2017,
  "\u2581alakohdassa": 2018,
  "\u2581turva": 2019,
  "\u2581edell\u00e4": 2020,
  "\u2581fully": 2021,
  "\u2581proposals": 2022,
  "\u2581200": 2023,
  "su": 2024,
  "\u2581principles": 2025,
  "\u2581kaikissa": 2026,
  "\u2581benefit": 2027,
  "\u2581esitt\u00e4\u00e4": 2028,
  "ci": 2029,
  "\u2581yhteisty\u00f6": 2030,
  "\u2581almost": 2031,
  "\u2581yleens\u00e4": 2032,
  "\u2581kohti": 2033,
  "of": 2034,
  "\u2581olin": 2035,
  "\u2581Social": 2036,
  "land": 2037,
  "\u2581along": 2038,
  "ive": 2039,
  "\u2581Her": 2040,
  "\u2581bodies": 2041,
  "est": 2042,
  "\u2581Take": 2043,
  "isesti": 2044,
  "\u2581joihin": 2045,
  "\u2581Official": 2046,
  "voi": 2047,
  "\u2581voinut": 2048,
  "\u2581Pe": 2049,
  "\u2581exchange": 2050,
  "\u2581vastuu": 2051,
  "\u2581maximum": 2052,
  "\u2581osoittaa": 2053,
  "\u2581France": 2054,
  "\u2581probably": 2055,
  "\u2581rahaa": 2056,
  "\u2581annual": 2057,
  "\u2581iso": 2058,
  "\u2581Haluatko": 2059,
  "\u2581yhteisty\u00f6t\u00e4": 2060,
  "\u2581context": 2061,
  "\u2581Ko": 2062,
  "\u2581brother": 2063,
  "\u2581follow": 2064,
  "\u2581vaikea": 2065,
  "\u2581safe": 2066,
  "\u2581ensimm\u00e4inen": 2067,
  "\u2581early": 2068,
  "ba": 2069,
  "\u2581Etk\u00f6": 2070,
  "90": 2071,
  "\u2581mist\u00e4": 2072,
  "\u2581niihin": 2073,
  "\u2581cross": 2074,
  "\u2581weight": 2075,
  "\u2581strong": 2076,
  "\u2581inside": 2077,
  "\u2581varmistaa": 2078,
  "\u2581knowledge": 2079,
  "\u2581asioita": 2080,
  "\u2581po": 2081,
  "\u2581supply": 2082,
  "\u2581eyes": 2083,
  "\u2581cause": 2084,
  "\u2581itself": 2085,
  "\u2581hallinto": 2086,
  "llisten": 2087,
  "ani": 2088,
  "\u2581operations": 2089,
  "ist": 2090,
  "\u2581muuttaa": 2091,
  "\u2581direktiivi": 2092,
  "\u2581code": 2093,
  "\u2581Commissioner": 2094,
  "\u2581payment": 2095,
  "\u2581defined": 2096,
  "01": 2097,
  "\u2581exactly": 2098,
  "val": 2099,
  "\u2581objective": 2100,
  "\u2581economy": 2101,
  "\u2581Articles": 2102,
  "\u2581hands": 2103,
  "\u00bb": 2104,
  "\u2581First": 2105,
  "\u2581himself": 2106,
  "\u2581Israel": 2107,
  "X": 2108,
  "\u2581administrative": 2109,
  "\u2581answer": 2110,
  "\u2581enter": 2111,
  "\u2581tuon": 2112,
  "\u25811997": 2113,
  "\u2581haven": 2114,
  "\u2581values": 2115,
  "ste": 2116,
  "16": 2117,
  "\u2581importance": 2118,
  "\u2581arviointi": 2119,
  "\u2581kansalais": 2120,
  "\u2581February": 2121,
  "rs": 2122,
  "ol": 2123,
  "\u2581offer": 2124,
  "\u2581useita": 2125,
  "\u2581ase": 2126,
  "\u2581responsibility": 2127,
  "\u2581text": 2128,
  "\u2581syyt\u00e4": 2129,
  "\u2581video": 2130,
  "\u2581mahdollisimman": 2131,
  "mer": 2132,
  "der": 2133,
  "\u2581olleet": 2134,
  "\u2581Mar": 2135,
  "\u2581esi": 2136,
  "\u2581Tu": 2137,
  "\u2581Ru": 2138,
  "\u2581submitted": 2139,
  "40": 2140,
  "\u2581pursuant": 2141,
  "14": 2142,
  "\u2581late": 2143,
  "\u2581reports": 2144,
  "\u2581s\u00e4hk\u00f6": 2145,
  "\u2581T\u00e4st\u00e4": 2146,
  "j\u00e4rjestelm\u00e4": 2147,
  "matta": 2148,
  "\u2581agreements": 2149,
  "\u2581Di": 2150,
  "\u2581road": 2151,
  "\u2581direct": 2152,
  "\u2581minimum": 2153,
  "ski": 2154,
  "ien": 2155,
  "\u2581etu": 2156,
  "\u2581sound": 2157,
  "\u2581performance": 2158,
  "\u2581Mene": 2159,
  "\u2581tosi": 2160,
  "\u2581Brussels": 2161,
  "\u2581koskevista": 2162,
  "\u2581tu": 2163,
  "\u2581knows": 2164,
  "vin": 2165,
  "\u2581kalastus": 2166,
  "\u2581Bank": 2167,
  "\u2581amendments": 2168,
  "\u2581moment": 2169,
  "\u2581puoli": 2170,
  "\u2581fishing": 2171,
  "\u2581speak": 2172,
  "\u2581parts": 2173,
  "\u2581Ar": 2174,
  "\u2581toimii": 2175,
  "\u2581fire": 2176,
  "\u2581sille": 2177,
  "\u2581communication": 2178,
  "\u2581standard": 2179,
  "\u2581kukaan": 2180,
  "\u2581kg": 2181,
  "for": 2182,
  "\u2581Po": 2183,
  "\u2581decided": 2184,
  "\u2581loppu": 2185,
  "\u2581measure": 2186,
  "est\u00e4": 2187,
  "DE": 2188,
  "\u2581intended": 2189,
  "\u2581regulation": 2190,
  "\u2581essential": 2191,
  "uus": 2192,
  "\u2581odottaa": 2193,
  "\u2581lo": 2194,
  "\u2581pit\u00e4nyt": 2195,
  "\u2581tomorrow": 2196,
  "\u2581Neuvoston": 2197,
  "\u2581ka": 2198,
  "\u2581news": 2199,
  "\u2581paremmin": 2200,
  "\u2581hieman": 2201,
  "tuu": 2202,
  "\u2581Tell": 2203,
  "\u2581sy": 2204,
  "no": 2205,
  "\u2581approved": 2206,
  "\u2581site": 2207,
  "\u2581li": 2208,
  "\u2581reported": 2209,
  "\u2581return": 2210,
  "\u2581Jehova": 2211,
  "\u2581uutta": 2212,
  "\u2581sivu": 2213,
  "?\"": 2214,
  "\u2581Pro": 2215,
  "\u2581takes": 2216,
  "\u2581Will": 2217,
  "\u2581Euro": 2218,
  "bi": 2219,
  "\u2581kilpailu": 2220,
  "\u2581yhteis\u00f6jen": 2221,
  "\u2581entry": 2222,
  "kas": 2223,
  "\u258133": 2224,
  "taa": 2225,
  "\u2581annetaan": 2226,
  "\u2581vehicle": 2227,
  "\u2581workers": 2228,
  "nno": 2229,
  "\u2581liittyy": 2230,
  "\u2581tarvitaan": 2231,
  "\u2581organisations": 2232,
  "\u2581EY": 2233,
  "\u2581hoito": 2234,
  "\u2581More": 2235,
  "\u2581koti": 2236,
  "ell\u00e4": 2237,
  "tto": 2238,
  "\u2581analysis": 2239,
  "\u2581behind": 2240,
  "\u2581yhteisen": 2241,
  "tut": 2242,
  "\u2581k\u00e4si": 2243,
  "\u2581cut": 2244,
  "\u2581viranomaisten": 2245,
  "\u2581oman": 2246,
  "\u2581tapa": 2247,
  "vu": 2248,
  "\u2581voimassa": 2249,
  "\u2581practice": 2250,
  "by": 2251,
  "\u2581kuva": 2252,
  "\u2581Asia": 2253,
  "aali": 2254,
  "\u2581annettava": 2255,
  "\u2581Ka": 2256,
  "\u258132": 2257,
  "\u2581network": 2258,
  "j": 2259,
  "11": 2260,
  "\u2581sub": 2261,
  "\u2581Dr": 2262,
  "\u2581Ole": 2263,
  "\u2581implementing": 2264,
  "\u2581step": 2265,
  "arvo": 2266,
  "\u2581region": 2267,
  "\u2581kaikkea": 2268,
  "\u2581ulko": 2269,
  "bo": 2270,
  "\u2581kuuluvat": 2271,
  "\u2581sy\u00f6": 2272,
  "\u2581jolloin": 2273,
  "\u2581regarding": 2274,
  "2/": 2275,
  "IN": 2276,
  "\u2581h\u00e4nest\u00e4": 2277,
  "\u2581alueen": 2278,
  "\u2581directive": 2279,
  "\u2581across": 2280,
  "\u2581listen": 2281,
  "\u2581EESC": 2282,
  "ran": 2283,
  "\u2581johtaa": 2284,
  "\u2581asetuksessa": 2285,
  "din": 2286,
  "\u2581vote": 2287,
  "\u2581normal": 2288,
  "\u2581k\u00e4ytt\u00f6\u00e4": 2289,
  "ling": 2290,
  "\u2581chance": 2291,
  "\u2581oikea": 2292,
  "\u2581TO": 2293,
  "\u2581police": 2294,
  "\u2581tonight": 2295,
  "\u2581difficult": 2296,
  "tettu": 2297,
  "\u2581[1]": 2298,
  "\u2581peace": 2299,
  "\u2581aiheuttaa": 2300,
  "\u2581saatavilla": 2301,
  "\u2581oikeassa": 2302,
  "\u2581labour": 2303,
  "\u2581couldn": 2304,
  "lli": 2305,
  "\u2581T\u00e4\u00e4ll\u00e4": 2306,
  "\u2581alkaa": 2307,
  "\u2581term": 2308,
  "imme": 2309,
  "\u2581yritys": 2310,
  "miin": 2311,
  "\u2581expenditure": 2312,
  "osa": 2313,
  "\u2581ongelmia": 2314,
  "\u2581tehd\u00e4\u00e4n": 2315,
  "\u25811996": 2316,
  "\u2581thus": 2317,
  "\u2581event": 2318,
  "\u2581oil": 2319,
  "\u2581imports": 2320,
  "\u2581raha": 2321,
  "\u2581keski": 2322,
  "\u2581drink": 2323,
  "t\u00e4\u00e4n": 2324,
  "\u2581Wi": 2325,
  "\u2581limited": 2326,
  "17": 2327,
  "\u2581details": 2328,
  "ajan": 2329,
  "\u2581staff": 2330,
  "\u2581osuus": 2331,
  "\u2581Suomen": 2332,
  "\u2581consider": 2333,
  "\u2581j\u00e4lleen": 2334,
  "\u2581su": 2335,
  "\u2581replaced": 2336,
  "\u2581disease": 2337,
  "\u2581tammikuuta": 2338,
  "aika": 2339,
  "\u2581anteeksi": 2340,
  "\u2581hetkell\u00e4": 2341,
  "\u2581pe": 2342,
  "\u2581stuff": 2343,
  "teet": 2344,
  "\u2581yes": 2345,
  "\u2581figure": 2346,
  "\u2581range": 2347,
  "\u2581meni": 2348,
  "\u2581vaikutus": 2349,
  "\u2581ensin": 2350,
  "\u2581reasons": 2351,
  "EUVL": 2352,
  "\u2581Lord": 2353,
  "\u2581House": 2354,
  "\u2581trust": 2355,
  "\u258170": 2356,
  "\u2581Aivan": 2357,
  "jien": 2358,
  "\u2581paper": 2359,
  "\u2581ottaen": 2360,
  "\u2581Su": 2361,
  "udu": 2362,
  "\u2581pressure": 2363,
  "\u2581tuote": 2364,
  "\u2581positive": 2365,
  "\u2581tarkoituksena": 2366,
  "\u2581provision": 2367,
  "\u2581koulutus": 2368,
  "\u2581import": 2369,
  "\u2581lains\u00e4\u00e4d\u00e4nn\u00f6n": 2370,
  "\u2581Vain": 2371,
  "\u2581designed": 2372,
  "\u2581Val": 2373,
  "\u2581behalf": 2374,
  "one": 2375,
  "tt\u00e4v\u00e4": 2376,
  "usta": 2377,
  "ime": 2378,
  "\u2581civil": 2379,
  "\u2581puhu": 2380,
  "\u2581asiasta": 2381,
  "\u2581Convention": 2382,
  "\u2581talouden": 2383,
  "\u2581katso": 2384,
  "\u2581clearly": 2385,
  "\u2581cent": 2386,
  "\u2581eat": 2387,
  "\u2581games": 2388,
  "\u2581published": 2389,
  "\u2581Siit\u00e4": 2390,
  "\u2581liittyvi\u00e4": 2391,
  "\u2581ty\u00f6n": 2392,
  "\u2581tulevat": 2393,
  "\u2581nor": 2394,
  "\u2581efforts": 2395,
  "\u2581agree": 2396,
  "age": 2397,
  "\u2581associated": 2398,
  "\u2581Finnish": 2399,
  "\u2581osin": 2400,
  "p\u00e4\u00e4": 2401,
  "tri": 2402,
  "\u2581Internet": 2403,
  "\u2581toimintaa": 2404,
  "\u2581supposed": 2405,
  "\u2581From": 2406,
  "\u2581sama": 2407,
  "\u2581International": 2408,
  "\u2581sustainable": 2409,
  "\u2581kuulu": 2410,
  "\u2581recent": 2411,
  "\u2581contribution": 2412,
  "\u2581ti": 2413,
  "\u2581Germany": 2414,
  "\u2581joko": 2415,
  "\u2581\u00e4iti": 2416,
  "\u2581interests": 2417,
  "\u2581whose": 2418,
  "\u25811995": 2419,
  "\u2581top": 2420,
  "\u2581agreed": 2421,
  "\u2581toi": 2422,
  "\u2581team": 2423,
  "\u2581tavoin": 2424,
  "\u2581edist\u00e4\u00e4": 2425,
  "\u2581kuluessa": 2426,
  "\u2581create": 2427,
  "\u2581radio": 2428,
  "\u2581vahvistaa": 2429,
  "oma": 2430,
  "\u2581ones": 2431,
  "23": 2432,
  "\u2581Tom": 2433,
  "\u2581lives": 2434,
  "\u2581David": 2435,
  "\u2581Ju": 2436,
  "ex": 2437,
  "\u2581juttu": 2438,
  "\u2581promote": 2439,
  "\u2581Ba": 2440,
  "\u2581goes": 2441,
  "\u2581member": 2442,
  "\u2581Lo": 2443,
  "\u2581America": 2444,
  "\u2581World": 2445,
  "\u2581muassa": 2446,
  "\u2581toimenpiteit\u00e4": 2447,
  "\u2581publication": 2448,
  "\u2581spirit": 2449,
  "\u2581parents": 2450,
  "pro": 2451,
  "\u2581peli": 2452,
  "\u2581seuraa": 2453,
  "\u2581matters": 2454,
  "@": 2455,
  "\u2581ETSK": 2456,
  "\u2581Since": 2457,
  "\u2581opportunity": 2458,
  "\u2581lasten": 2459,
  "\u2581IV": 2460,
  "\u2581front": 2461,
  "\u2581rates": 2462,
  "\u2581kulttuuri": 2463,
  "\u2581develop": 2464,
  "\u2581follows": 2465,
  "my": 2466,
  "\u2581sense": 2467,
  "llisen": 2468,
  "13": 2469,
  "\u2581l\u00e4hell\u00e4": 2470,
  "\u2581sis\u00e4ll\u00e4": 2471,
  "\u2581month": 2472,
  "ine": 2473,
  "18": 2474,
  "\u2581al": 2475,
  "\u2581sex": 2476,
  "ES": 2477,
  "\u2581J\u00e4senvaltioiden": 2478,
  "\u2581charge": 2479,
  "im": 2480,
  "\u2581kysymys": 2481,
  "\u2581central": 2482,
  "\u2581administration": 2483,
  "\u2581pahoillani": 2484,
  "\u2581kids": 2485,
  "\u2581unioni": 2486,
  "\u258136": 2487,
  "\u2581va": 2488,
  "\u2581saat": 2489,
  "\u2581suhteen": 2490,
  "\u2581stand": 2491,
  "\u2581tarvittaessa": 2492,
  "eli": 2493,
  "\u25812017": 2494,
  "\u2581hein\u00e4kuuta": 2495,
  "\u2581perustuu": 2496,
  "ukset": 2497,
  "\u2581Hu": 2498,
  "masta": 2499,
  "\u2581page": 2500,
  "\u2581parempi": 2501,
  "\u2581containing": 2502,
  "\u2581documents": 2503,
  "\u2581tekem\u00e4\u00e4n": 2504,
  "\u2581kansallisten": 2505,
  "\u2581silt\u00e4": 2506,
  "\u2581saavat": 2507,
  "].": 2508,
  "v\u00e4n": 2509,
  "\u2581specified": 2510,
  "\u2581Pi": 2511,
  "\u2581l\u00f6yt\u00e4\u00e4": 2512,
  "ot": 2513,
  "\u2581lie": 2514,
  "\u2581yksityiskohtais": 2515,
  "kkaa": 2516,
  "\u2581vaatimukset": 2517,
  "\u2581kunnes": 2518,
  "\u2581population": 2519,
  "\u2581seuraavaa": 2520,
  "22": 2521,
  "\u2581self": 2522,
  "ate": 2523,
  "\u2581aiemmin": 2524,
  "\u2581joint": 2525,
  "neiden": 2526,
  "\u2581language": 2527,
  "\u2581technology": 2528,
  "\u2581tarkoitus": 2529,
  "\u2581kid": 2530,
  "\u2581protect": 2531,
  "\u2581materials": 2532,
  "\u2581OK": 2533,
  "\u2581beautiful": 2534,
  "\u2581Bo": 2535,
  "\u2581raja": 2536,
  "\u2581minute": 2537,
  "\u2581lokakuuta": 2538,
  "\u2581mahdollisuus": 2539,
  "\u2581Sill\u00e4": 2540,
  "jan": 2541,
  "\u2581global": 2542,
  "\u2581Home": 2543,
  "iko": 2544,
  "\u258145": 2545,
  "\u2581tuen": 2546,
  "\u2581equal": 2547,
  "\u2581duty": 2548,
  "ad": 2549,
  "neuvoston": 2550,
  "\u2581approval": 2551,
  "Se": 2552,
  "ting": 2553,
  "\u2581contains": 2554,
  "\u2581South": 2555,
  "\u2581Ku": 2556,
  "\u2581expected": 2557,
  "\u2581tilanne": 2558,
  "\u2581achieve": 2559,
  "\u2581benefits": 2560,
  "\u2581send": 2561,
  "\u2581maatalous": 2562,
  "hu": 2563,
  "\u2581kiitos": 2564,
  "ING": 2565,
  "\u2581vaatimusten": 2566,
  "\u2581jatkaa": 2567,
  "\u2581kar": 2568,
  "\u2581giving": 2569,
  "ssi": 2570,
  "\u2581previous": 2571,
  "\u2581investigation": 2572,
  "\u2581OJ": 2573,
  "oli": 2574,
  "\u2581tapauksissa": 2575,
  "tt\u00e4\u00e4": 2576,
  "\u2581paikka": 2577,
  "\u2581liikenne": 2578,
  "\u2581looks": 2579,
  "misest\u00e4": 2580,
  "\u2581pikku": 2581,
  "\u2581overall": 2582,
  "\u2581t\u00e4\u00e4lt\u00e4": 2583,
  "\u2581perhe": 2584,
  "\u2581jotakin": 2585,
  "\u2581hit": 2586,
  "\u2581vuosina": 2587,
  "\u2581resolution": 2588,
  "time": 2589,
  "\u2581listed": 2590,
  "dll": 2591,
  "\u2581el\u00e4m\u00e4n": 2592,
  "\u2581external": 2593,
  "\u2581detailed": 2594,
  "\u2581Listen": 2595,
  "ska": 2596,
  "\u2581town": 2597,
  "\u2581husband": 2598,
  "gt": 2599,
  "\u2581ihmis": 2600,
  "\u2581carry": 2601,
  "\u2581export": 2602,
  "\u2581French": 2603,
  "\u2581response": 2604,
  "\u2581ikin\u00e4": 2605,
  "\u2581ki": 2606,
  "\u2581Lu": 2607,
  "\u2581origin": 2608,
  "\u2581Ben": 2609,
  "\u2581aine": 2610,
  "\u2581Italian": 2611,
  "\u2581Journal": 2612,
  "\u2581vara": 2613,
  "\u2581Therefore": 2614,
  "\u25816.": 2615,
  "\u2581tasa": 2616,
  "\u2581remain": 2617,
  "\u2581matka": 2618,
  "\u2581s\u00e4\u00e4det\u00e4\u00e4n": 2619,
  "\u2581message": 2620,
  "nnin": 2621,
  "\u2581maaliskuuta": 2622,
  "ner": 2623,
  "\u2581Windows": 2624,
  "ler": 2625,
  "\u2581crisis": 2626,
  "\u2581obligations": 2627,
  "\u2581worry": 2628,
  "\u25812018": 2629,
  "\u2581Peter": 2630,
  "\u2581anna": 2631,
  "\u2581post": 2632,
  "\u2581seems": 2633,
  "\u2581selv\u00e4sti": 2634,
  "\u2581Central": 2635,
  "misessa": 2636,
  "\u2581Agency": 2637,
  "Ei": 2638,
  "ville": 2639,
  "\u2581vapaa": 2640,
  "je": 2641,
  "\u2581document": 2642,
  "\u2581yhteis\u00f6": 2643,
  "\u2581meri": 2644,
  "m\u00e4\u00e4r\u00e4": 2645,
  "\u2581Pu": 2646,
  "\u2581500": 2647,
  "21": 2648,
  "\u2581amending": 2649,
  "\u2581vehicles": 2650,
  "\u2581EKP": 2651,
  "\u2581P\u00e4\u00e4": 2652,
  "\u2581Jack": 2653,
  "\u2581kuollut": 2654,
  "\u2581fixed": 2655,
  "\u2581developing": 2656,
  "\u2581l\u00e4hte\u00e4": 2657,
  "\u2581sea": 2658,
  "fe": 2659,
  "\u2581reduce": 2660,
  "\u2581Christian": 2661,
  "\u2581pyyt\u00e4\u00e4": 2662,
  "\u2581complete": 2663,
  "\u258134": 2664,
  "\u2581Sam": 2665,
  "Mit\u00e4": 2666,
  "\u2581tappaa": 2667,
  "itte": 2668,
  "\u2581watch": 2669,
  "\u2581developed": 2670,
  "24": 2671,
  "\u2581reduction": 2672,
  "80": 2673,
  "\u2581died": 2674,
  "\u2581Ty\u00f6": 2675,
  "\u2581story": 2676,
  "\u2581l\u00e4hes": 2677,
  "\u2581history": 2678,
  "\u2581St": 2679,
  "\u2581walk": 2680,
  "eu": 2681,
  "\u2581prevent": 2682,
  "\u2581tried": 2683,
  "\u2581white": 2684,
  "ske": 2685,
  "\u2581save": 2686,
  "\u2581koske": 2687,
  "vi\u00e4": 2688,
  "\u2581osan": 2689,
  "line": 2690,
  "kko": 2691,
  "\u2581break": 2692,
  "\u2581saman": 2693,
  "\u2581People": 2694,
  "\u2581fun": 2695,
  "\u2581contract": 2696,
  "\u2581tytt\u00f6": 2697,
  "1/": 2698,
  "\u2581pu": 2699,
  "\u2581mentioned": 2700,
  "\u2581El": 2701,
  "\u2581huono": 2702,
  "palvelu": 2703,
  "\u2581ho": 2704,
  "\u2581Ota": 2705,
  "aine": 2706,
  "\u2581organisation": 2707,
  "\u2581alueiden": 2708,
  "\u2581ensi": 2709,
  "\u2581IN": 2710,
  "\u2581Hotel": 2711,
  "\u2581lower": 2712,
  "\u2581Z": 2713,
  "\u2581Really": 2714,
  "\u2581ke": 2715,
  "\u2581kansalaisten": 2716,
  "\u2581esiin": 2717,
  "\u2581kolmen": 2718,
  "\u2581suoja": 2719,
  "\u2581scope": 2720,
  "\u2581gets": 2721,
  "\u2581parantaa": 2722,
  "\u2581Development": 2723,
  "ei": 2724,
  "\u2581hurt": 2725,
  "tar": 2726,
  "\u2581draft": 2727,
  "\u2581inter": 2728,
  "ance": 2729,
  "\u2581mo": 2730,
  "\u2581events": 2731,
  "t\u00f6": 2732,
  "\u2581toteuttaa": 2733,
  "\u2581Sinulla": 2734,
  "\u2581x": 2735,
  "\u2581choice": 2736,
  "\u2581viranomaiset": 2737,
  "\u2581paitsi": 2738,
  "\u2581pain": 2739,
  "\u2581tavoitteena": 2740,
  "04": 2741,
  "\u2581Ke": 2742,
  "\u2581tarjoaa": 2743,
  "\u2581funding": 2744,
  "\u2581varmaan": 2745,
  "\u2581sala": 2746,
  "\u2581media": 2747,
  "\u2581n\u00e4ist\u00e4": 2748,
  "utta": 2749,
  "\u2581T\u00e4ll\u00e4": 2750,
  "\u258137": 2751,
  "don": 2752,
  "tk\u00f6": 2753,
  "\u2581industrial": 2754,
  "\u2581learn": 2755,
  "\u2581assets": 2756,
  "\u2581sellaisten": 2757,
  "\u2581consumption": 2758,
  "ase": 2759,
  "\u2581Mu": 2760,
  "du": 2761,
  "\u2581v\u00e4hemm\u00e4n": 2762,
  "\u2581kasvu": 2763,
  "\u2581National": 2764,
  "\u2581Any": 2765,
  "\u2581tuntia": 2766,
  "asi": 2767,
  "\u2581dad": 2768,
  "\u2581monia": 2769,
  "\u2581Even": 2770,
  "\u2581merkitt\u00e4v\u00e4": 2771,
  "tra": 2772,
  "\u2581calls": 2773,
  "\u2581foreign": 2774,
  "\u2581Car": 2775,
  "\u2581fall": 2776,
  "\u2581providing": 2777,
  "\u2581require": 2778,
  "\u2581per\u00e4isin": 2779,
  "\u2581Nothing": 2780,
  "\u2581ainakin": 2781,
  "\u2581balance": 2782,
  "tiin": 2783,
  "\u2581My\u00f6s": 2784,
  "ism": 2785,
  "\u2581300": 2786,
  "\u258175": 2787,
  "\u2581tie": 2788,
  "\u2581couple": 2789,
  "staan": 2790,
  "\u2581viisi": 2791,
  "\u2581Con": 2792,
  "\u2581Ti": 2793,
  "\u2581oikeuden": 2794,
  "\u2581EEA": 2795,
  "02": 2796,
  "\u2581Va": 2797,
  "\u2581aim": 2798,
  "\u2581Part": 2799,
  "Z": 2800,
  "EL": 2801,
  "tys": 2802,
  "id": 2803,
  "ken": 2804,
  "\u2581drive": 2805,
  "\u2581ground": 2806,
  "\u2581ihmisen": 2807,
  "\u2581h\u00e4nell\u00e4": 2808,
  "\u2581Party": 2809,
  "vel": 2810,
  "\u2581buy": 2811,
  "\u2581teid\u00e4t": 2812,
  "\u2581huh": 2813,
  "\u2581r": 2814,
  "ryhm\u00e4n": 2815,
  "\u2581operating": 2816,
  "\u2581adopt": 2817,
  "\u2581statistics": 2818,
  "dia": 2819,
  "\u2581avoid": 2820,
  "\u2581[2]": 2821,
  "\u2581status": 2822,
  "\u2581insurance": 2823,
  "\u2581Odota": 2824,
  "\u2581Lis\u00e4\u00e4": 2825,
  "tel": 2826,
  "\u2581toiminnasta": 2827,
  "ole": 2828,
  "\u2581arrangements": 2829,
  "\u2581Li": 2830,
  "ksemme": 2831,
  "\u2581consumer": 2832,
  "\u2581edellytt\u00e4\u00e4": 2833,
  "\u2581EUROPEAN": 2834,
  "\u2581sijaan": 2835,
  "\u2581edess\u00e4": 2836,
  "\u2581entire": 2837,
  "\u2581scheme": 2838,
  "\u2581toukokuuta": 2839,
  "\u2581sellaisena": 2840,
  "\u2581uusien": 2841,
  "6/": 2842,
  "\u2581Jeesuksen": 2843,
  "\u2581EUROOPAN": 2844,
  "\u2581poliisi": 2845,
  "\u2581suurempi": 2846,
  "\u2581receive": 2847,
  "\u2581lausunnon": 2848,
  "\u2581Those": 2849,
  "\u2581h": 2850,
  "\u2581Voin": 2851,
  "\u2581sales": 2852,
  "\u2581producers": 2853,
  "\u2581sign": 2854,
  "\u2581ty": 2855,
  "\u2581viimeksi": 2856,
  "\u2581tuota": 2857,
  "jat": 2858,
  "\u2581lain": 2859,
  "\u2581muuttamisesta": 2860,
  "\u2581ten": 2861,
  "\u2581methods": 2862,
  "toimi": 2863,
  "\u2581guarantee": 2864,
  "\u2581substances": 2865,
  "\u2581created": 2866,
  "mat": 2867,
  "99": 2868,
  "vir": 2869,
  "\u2581terveys": 2870,
  "fa": 2871,
  "\u2581relation": 2872,
  "ah": 2873,
  "\u2581con": 2874,
  "lleen": 2875,
  "\u2581Government": 2876,
  "\u2581p\u00e4\u00e4lle": 2877,
  "\u2581sosiaali": 2878,
  "\u2581silti": 2879,
  "\u2581states": 2880,
  "ura": 2881,
  "26": 2882,
  "\u2581welcome": 2883,
  "\u2581Report": 2884,
  "\u2581presented": 2885,
  "\u2581Tied\u00e4tk\u00f6": 2886,
  "\u2581loppuun": 2887,
  "\u2581liittyvien": 2888,
  "ley": 2889,
  "\u2581likely": 2890,
  "\u2581method": 2891,
  "\u2581sleep": 2892,
  "\u2581huomiota": 2893,
  "eseen": 2894,
  "\u2581sectors": 2895,
  "ker": 2896,
  "\u2581maassa": 2897,
  "\u2581mu": 2898,
  "\u2581N\u00e4yt\u00e4": 2899,
  "\u2581k\u00e4yt\u00f6n": 2900,
  "\u2581hair": 2901,
  "\u2581t": 2902,
  "\u2581partners": 2903,
  "\u2581space": 2904,
  "\u2581worked": 2905,
  "\u2581Section": 2906,
  "\u2581maksaa": 2907,
  "\u2581nainen": 2908,
  "\u2581naisten": 2909,
  "\u2581risks": 2910,
  "\u2581establish": 2911,
  "8/": 2912,
  "tie": 2913,
  "\u258148": 2914,
  "\u2581Da": 2915,
  "\u2581plant": 2916,
  "\u2581lento": 2917,
  "ren": 2918,
  "\u2581kyseess\u00e4": 2919,
  "\u2581fair": 2920,
  "\u2581kuukautta": 2921,
  "\u2581fish": 2922,
  "\u2581p\u00e4\u00e4tt\u00e4\u00e4": 2923,
  "\u2581rule": 2924,
  "\u2581immediately": 2925,
  "\u2581afraid": 2926,
  "\u2581paino": 2927,
  "\u2581vaimo": 2928,
  "amme": 2929,
  "\u2581vahvistetaan": 2930,
  "\u2581yhteytt\u00e4": 2931,
  "\u2581daily": 2932,
  "\u2581model": 2933,
  "\u2581gentlemen": 2934,
  "\u2581julkisen": 2935,
  "\u2581ISSN": 2936,
  "\u2581favour": 2937,
  "\u2581hyv\u00e4ksy\u00e4": 2938,
  "\u2581Euroopassa": 2939,
  "\u2581markkinoille": 2940,
  "\u2581yhteis": 2941,
  "\u2581erityisen": 2942,
  "\u2581Two": 2943,
  "\u2581Fund": 2944,
  "\u2581j\u00e4rjestelm\u00e4": 2945,
  "\u2581suurin": 2946,
  "\u2581interested": 2947,
  "sy": 2948,
  "\u2581paras": 2949,
  "\u2581kaikista": 2950,
  "\u2581monet": 2951,
  "\u2581l\u00e4htien": 2952,
  "\u2581size": 2953,
  "\u2581relationship": 2954,
  "\u2581H\u00e4nell\u00e4": 2955,
  "ster": 2956,
  "\u2581sugar": 2957,
  "\u2581maissa": 2958,
  "\u2581marraskuuta": 2959,
  "\u2581p\u00e4\u00e4ll\u00e4": 2960,
  "kun": 2961,
  "\u2581shown": 2962,
  "60": 2963,
  "\u2581circumstances": 2964,
  "\u2581authorisation": 2965,
  "\u2581billion": 2966,
  "\u2581k\u00e4ytett\u00e4viss\u00e4": 2967,
  "\u2581jokin": 2968,
  "\u2581types": 2969,
  "isuus": 2970,
  "ppi": 2971,
  "\u2581vanha": 2972,
  "\u2581k\u00e4vi": 2973,
  "\u2581syyst\u00e4": 2974,
  "\u2581ottamatta": 2975,
  "\u2581Give": 2976,
  "\u2581consumers": 2977,
  "ard": 2978,
  "\u2581le": 2979,
  "\u2581Edell\u00e4": 2980,
  "\u2581participation": 2981,
  "\u2581ain": 2982,
  "\u2581running": 2983,
  "\u2581transfer": 2984,
  "\u2581Vuonna": 2985,
  "\u2581freedom": 2986,
  "p\u00e4iv\u00e4": 2987,
  "\u2581About": 2988,
  "\u2581August": 2989,
  "\u2581treated": 2990,
  "\u2581accept": 2991,
  "\u2581hour": 2992,
  "gi": 2993,
  "\u2581ECB": 2994,
  "\u2581emissions": 2995,
  "\u2581rapporteur": 2996,
  "\u2581Etel\u00e4": 2997,
  "\u2581huolimatta": 2998,
  "\u2581haluavat": 2999,
  "\u2581issued": 3000,
  "\u2581ilma": 3001,
  "\u2581sis\u00e4": 3002,
  "\u2581compared": 3003,
  "\u2581currently": 3004,
  "\u2581throughout": 3005,
  "9/": 3006,
  "\u2581financing": 3007,
  "4/": 3008,
  "tic": 3009,
  "\u2581skin": 3010,
  "\u2581Only": 3011,
  "05": 3012,
  "#": 3013,
  "ty\u00f6": 3014,
  "35": 3015,
  "7/": 3016,
  "\u2581shot": 3017,
  "\u2581Ex": 3018,
  "\u2581concern": 3019,
  "\u2581toivo": 3020,
  "\u2581hinta": 3021,
  "\u2581numero": 3022,
  "\u2581limit": 3023,
  "\u2581negotiations": 3024,
  "tro": 3025,
  "\u2581stage": 3026,
  "dis": 3027,
  "ET": 3028,
  "\u2581medical": 3029,
  "\u2581tunne": 3030,
  "\u2581loss": 3031,
  "\u2581near": 3032,
  "ksesi": 3033,
  "\u2581ilmoitettava": 3034,
  "\u2581reach": 3035,
  "\u2581UN": 3036,
  "\u2581recommended": 3037,
  "mon": 3038,
  "\u2581crazy": 3039,
  "\u2581daughter": 3040,
  "lliset": 3041,
  "\u2581j\u00e4ljemp\u00e4n\u00e4": 3042,
  "\u2581produced": 3043,
  "\u25812020": 3044,
  "\u2581ways": 3045,
  "\u2581unionissa": 3046,
  "mpaa": 3047,
  "\u2581Information": 3048,
  "\u2581whatever": 3049,
  "\u2581customs": 3050,
  "\u2581kerro": 3051,
  "\u2581pyrit\u00e4\u00e4n": 3052,
  "\u2581territory": 3053,
  "\u2581alla": 3054,
  "\u2581faith": 3055,
  "\u2581ymm\u00e4rr\u00e4": 3056,
  "\u2581adoption": 3057,
  "\u2581commercial": 3058,
  "\u2581compliance": 3059,
  "\u2581Great": 3060,
  "\u2581maksa": 3061,
  "\u2581voima": 3062,
  "\u2581hyv\u00e4ksyi": 3063,
  "\u2581ehdotuksen": 3064,
  "\u2581hyv\u00e4ksi": 3065,
  "\u2581mine": 3066,
  "\u2581riski": 3067,
  "\u2581tiettyjen": 3068,
  "\u2581van": 3069,
  "ris": 3070,
  "\u2581DLL": 3071,
  "\u2581puu": 3072,
  "\u2581hot": 3073,
  "\u2581Is\u00e4": 3074,
  "\u2581miehen": 3075,
  ">": 3076,
  "\u2581sellaista": 3077,
  "\u2581alan": 3078,
  "\u2581palvelu": 3079,
  "\u2581tied\u00e4t": 3080,
  "9": 3081,
  "\u2581jatkuvasti": 3082,
  "\u2581Ennen": 3083,
  "\u2581meaning": 3084,
  "You": 3085,
  "\u2581San": 3086,
  "\u2581ryhm\u00e4": 3087,
  "\u2581allowed": 3088,
  "\u2581official": 3089,
  "\u2581s\u00e4\u00e4ntely": 3090,
  "\u2581kaa": 3091,
  "\u258185": 3092,
  "\u2581kaupan": 3093,
  "\u2581achieved": 3094,
  "y\u00f6": 3095,
  "27": 3096,
  "\u2581samoin": 3097,
  "\u2581n": 3098,
  "\u2581vuoteen": 3099,
  "\u2581tutki": 3100,
  "\u2581jobs": 3101,
  "\u2581Dad": 3102,
  "\u2581el\u00e4inten": 3103,
  "\u2581val": 3104,
  "\u2581efficiency": 3105,
  "llo": 3106,
  "\u2581Free": 3107,
  "\u2581suuren": 3108,
  "\u2581Authority": 3109,
  "\u2581olevia": 3110,
  "\u2581Joo": 3111,
  "var": 3112,
  "29": 3113,
  "\u2581bed": 3114,
  "\u2581forms": 3115,
  "con": 3116,
  "\u2581decide": 3117,
  "\u2581est\u00e4\u00e4": 3118,
  "mar": 3119,
  "\u2581ohjelma": 3120,
  "\u2581t\u00e4yt\u00e4nt\u00f6\u00f6n": 3121,
  "\u2581According": 3122,
  "\u2581kii": 3123,
  "\u2581reform": 3124,
  "\u2581substance": 3125,
  "uuden": 3126,
  "kse": 3127,
  "\u2581court": 3128,
  "\u2581mihin": 3129,
  "\u2581asu": 3130,
  "\u2581lapsi": 3131,
  "\u2581Mom": 3132,
  "\u2581niille": 3133,
  "\u2581evaluation": 3134,
  "\u2581beginning": 3135,
  "ero": 3136,
  "\u2581plans": 3137,
  "\u2581lack": 3138,
  "\u2581infrastructure": 3139,
  "\u2581Joten": 3140,
  "\u2581tavata": 3141,
  "\u2581black": 3142,
  "\u2581opportunities": 3143,
  "\u2581t\u00e4n\u00e4": 3144,
  "\u2581waiting": 3145,
  "valtio": 3146,
  "\u2581verrattuna": 3147,
  "\u2581hyv\u00e4t": 3148,
  "\u2581ko": 3149,
  "ide": 3150,
  "\u2581lis\u00e4t\u00e4": 3151,
  "\u2581koulu": 3152,
  "\u2581muihin": 3153,
  "\u2581jonkin": 3154,
  "\u2581original": 3155,
  "tun": 3156,
  "\u2581establishment": 3157,
  "\u2581design": 3158,
  "\u2581species": 3159,
  "\u258138": 3160,
  "\u2581moni": 3161,
  "\u2581mom": 3162,
  "\u2581York": 3163,
  "\u2581concerns": 3164,
  "\u2581tutkimuksen": 3165,
  "\u2581kept": 3166,
  "ak": 3167,
  "\u25811,": 3168,
  "\u2581bank": 3169,
  "\u2581letter": 3170,
  "\u2581Jotta": 3171,
  "port": 3172,
  "\u2581Brysseliss\u00e4": 3173,
  "hti": 3174,
  "ger": 3175,
  "\u2581Sorry": 3176,
  "\u2581huhtikuuta": 3177,
  "\u2581par": 3178,
  "\u2581liitteen": 3179,
  "\u2581Whereas": 3180,
  "\u2581Ihan": 3181,
  "llisesti": 3182,
  "\u2581esitet\u00e4\u00e4n": 3183,
  "\u2581Hyv\u00e4\u00e4": 3184,
  "In": 3185,
  "yty": 3186,
  "\u2581tarkoitetut": 3187,
  "laisia": 3188,
  "\u2581whom": 3189,
  "\u2581telling": 3190,
  "\u2581Haluaisin": 3191,
  "28": 3192,
  "\u2581dialogue": 3193,
  "\u2581asiat": 3194,
  "\u2581determined": 3195,
  "\u2581relations": 3196,
  "\u2581kehityksen": 3197,
  "\u2581tekev\u00e4t": 3198,
  "\u2581class": 3199,
  "tele": 3200,
  "75": 3201,
  "100": 3202,
  "\u25811994": 3203,
  "2)": 3204,
  "lei": 3205,
  "\u2581Common": 3206,
  "\u2581hieno": 3207,
  "\u2581sit": 3208,
  "\u2581forget": 3209,
  "\u2581Si": 3210,
  "\u2581lose": 3211,
  "\u2581VI": 3212,
  "\u2581cm": 3213,
  "\u2581creation": 3214,
  "mus": 3215,
  "\u2581integration": 3216,
  "\u2581instrument": 3217,
  "\u2581ship": 3218,
  "\u2581condition": 3219,
  "\u2581teen": 3220,
  "\u2581seem": 3221,
  "\u2581visit": 3222,
  "\u2581Per": 3223,
  "\u2581pidet\u00e4\u00e4n": 3224,
  "\u2581toimien": 3225,
  "mmin": 3226,
  "\u2581regulatory": 3227,
  "\u2581University": 3228,
  "\u2581initiative": 3229,
  "\u2581tarkoitettujen": 3230,
  "\u2581v\u00e4ri": 3231,
  "\u2581Pid\u00e4": 3232,
  "\u2581majority": 3233,
  "\u2581lukuun": 3234,
  "\u2581simply": 3235,
  "\u2581Sir": 3236,
  "\u2581travel": 3237,
  "we": 3238,
  "70": 3239,
  "\u2581etenkin": 3240,
  "\u2581olemaan": 3241,
  "\u2581statement": 3242,
  "\u2581China": 3243,
  "\u2581guidelines": 3244,
  "36": 3245,
  "\u258139": 3246,
  "\u2581pitk\u00e4": 3247,
  "\u2581Ah": 3248,
  "\u2581j\u00e4senet": 3249,
  "\u2581girls": 3250,
  "\u2581joskus": 3251,
  "\u2581Programme": 3252,
  "\u2581hullu": 3253,
  "\u2581kaveri": 3254,
  "\u2581tapahtunut": 3255,
  "\u2581koskevaa": 3256,
  "Liitetaulukko": 3257,
  "\u2581etten": 3258,
  "\u2581shows": 3259,
  "mies": 3260,
  "\u2581Would": 3261,
  "\u2581unless": 3262,
  "\u2581thanks": 3263,
  "IS": 3264,
  "\u2581Excuse": 3265,
  "\u2581perfect": 3266,
  "\u2581CO": 3267,
  "\u2581payments": 3268,
  "ttua": 3269,
  "\u2581reading": 3270,
  "\u2581tiedon": 3271,
  "\u2581reduced": 3272,
  "AN": 3273,
  "kar": 3274,
  "\u2581j\u00e4tt\u00e4\u00e4": 3275,
  "\u2581sin": 3276,
  "\u2581viikon": 3277,
  "olo": 3278,
  "\u2581changed": 3279,
  "\u2581setting": 3280,
  "ohjelman": 3281,
  "\u2581medicinal": 3282,
  "\u2581Show": 3283,
  "\u2581priority": 3284,
  "\u2581ohi": 3285,
  "ies": 3286,
  "\u2581source": 3287,
  "\u2581king": 3288,
  "98": 3289,
  "\u2581COM": 3290,
  "\u2581movement": 3291,
  "\u2581yrityksen": 3292,
  "\u2581s\u00e4\u00e4nt\u00f6jen": 3293,
  "out": 3294,
  "\u2581feeling": 3295,
  "essaan": 3296,
  "\u2581Van": 3297,
  "\u2581teksti": 3298,
  "yl": 3299,
  "stu": 3300,
  "\u2581red": 3301,
  "\u2581aspects": 3302,
  "\u2581kanta": 3303,
  "\u2581applicant": 3304,
  "\u2581Lis\u00e4tietoja": 3305,
  "32": 3306,
  "\u2581\u00c4iti": 3307,
  "\u2581antanut": 3308,
  "\u2581Luulin": 3309,
  "96": 3310,
  "\u2581electronic": 3311,
  "\u2581ammatti": 3312,
  "\u2581tuntuu": 3313,
  "\u2581ohjelman": 3314,
  "\u2581extent": 3315,
  "\u2581ansiosta": 3316,
  "talo": 3317,
  "\u2581Tilastokeskus": 3318,
  "\u2581focus": 3319,
  "\u2581Africa": 3320,
  "\u2581Keep": 3321,
  "\u2581v\u00e4\u00e4rin": 3322,
  "\u2581applications": 3323,
  "\u2581prepared": 3324,
  "II": 3325,
  "\u2581injection": 3326,
  "\u2581Oli": 3327,
  "\u2581trouble": 3328,
  "\u2581unit": 3329,
  "\u2581accounts": 3330,
  "\u2581Such": 3331,
  "\u2581income": 3332,
  "\u2581includes": 3333,
  "\u2581yl\u00f6s": 3334,
  "\u2581except": 3335,
  "\u2581Chapter": 3336,
  "45": 3337,
  "\u2581Un": 3338,
  "\u2581series": 3339,
  "\u2581anymore": 3340,
  "\u2581toimet": 3341,
  "\u2581clean": 3342,
  "tio": 3343,
  "\u2581sana": 3344,
  "\u2581olevassa": 3345,
  "\u2581felt": 3346,
  "\u2581ota": 3347,
  "\u2581acts": 3348,
  "l\u00e4": 3349,
  "\u2581prior": 3350,
  "\u2581komitean": 3351,
  "\u2581Du": 3352,
  "\u2581palaa": 3353,
  "31": 3354,
  "\u2581suhteessa": 3355,
  "\u2581tied\u00e4n": 3356,
  "\u2581t\u00e4": 3357,
  "ian": 3358,
  "\u2581tulli": 3359,
  "\u2581professional": 3360,
  "\u2581kuoli": 3361,
  ",\"": 3362,
  "\u2581airport": 3363,
  "\u2581tarvitsee": 3364,
  "\u2581powers": 3365,
  "toja": 3366,
  "\u00fc": 3367,
  "\u25812.": 3368,
  "\u2581syyskuuta": 3369,
  "\u2581kuulla": 3370,
  "\u2581elements": 3371,
  "\u2581married": 3372,
  "\u2581huomenna": 3373,
  "less": 3374,
  "\u2581Board": 3375,
  "\u2581operators": 3376,
  "\u2581became": 3377,
  "\u2581potilailla": 3378,
  "\u2581tuomioistuimen": 3379,
  "\u2581CN": 3380,
  "\u2015": 3381,
  "ilu": 3382,
  "\u2581alas": 3383,
  "\u2581kohtaa": 3384,
  "\u2581identified": 3385,
  "\u2581EYVL": 3386,
  "\u2581hyv\u00e4ksy": 3387,
  "\u2581hotel": 3388,
  "sh": 3389,
  "\u2581m\u00e4\u00e4r\u00e4\u00e4": 3390,
  "95": 3391,
  "tila": 3392,
  "eni": 3393,
  "\u2581kansan": 3394,
  "\u2581var": 3395,
  "\u2581kello": 3396,
  "\u2581tarkoitetun": 3397,
  "\u2581marketing": 3398,
  "\u00c4": 3399,
  "\u2581Aika": 3400,
  "\u2581verkko": 3401,
  "\u2581US": 3402,
  "\u2581written": 3403,
  "\u2581palvelujen": 3404,
  "\u2581target": 3405,
  "\u2581Director": 3406,
  "\u2581eye": 3407,
  "\u2581processing": 3408,
  "\u2581completely": 3409,
  "\u2581connection": 3410,
  "llisia": 3411,
  "\u2581milk": 3412,
  "\u2581Ki": 3413,
  "\u2581siirto": 3414,
  "\u2581fast": 3415,
  "\u2581muka": 3416,
  "\u2581innovation": 3417,
  "tion": 3418,
  "\u2581virus": 3419,
  "\u2581gun": 3420,
  "ow": 3421,
  "\u2581mahdollisesti": 3422,
  "ryhm\u00e4": 3423,
  "\u2581erikois": 3424,
  "ous": 3425,
  "\u2581s\u00e4": 3426,
  "\u2581Raamatun": 3427,
  "\u2581film": 3428,
  "\u2581el\u00e4\u00e4": 3429,
  "year": 3430,
  "\u2581subparagraph": 3431,
  "\u2581writing": 3432,
  "\u2581jonkun": 3433,
  "\u2581varmistamiseksi": 3434,
  "ike": 3435,
  "\u2581Justice": 3436,
  "\u2581K\u00e4y": 3437,
  "\u2581alive": 3438,
  "2002": 3439,
  "\u2581scientific": 3440,
  "\u2581kulta": 3441,
  "\u2581p\u00e4iv\u00e4st\u00e4": 3442,
  "\u2581notice": 3443,
  "isi\u00e4": 3444,
  "\u2581uskoa": 3445,
  "Fi": 3446,
  "\u2581Michael": 3447,
  "alue": 3448,
  "\u2581keino": 3449,
  "\u2581Kaksi": 3450,
  "ite": 3451,
  "del": 3452,
  "\u2581THIS": 3453,
  "day": 3454,
  "\u2581soveltamista": 3455,
  "t\u00e4\u00e4": 3456,
  "\u2581ladies": 3457,
  "\u2581p\u00e4\u00e4ss\u00e4": 3458,
  "\u2581demand": 3459,
  "\u2581toimenpiteiden": 3460,
  "\u2581Asetuksen": 3461,
  "\u2581board": 3462,
  "\u2581u": 3463,
  "\u2581yritt\u00e4\u00e4": 3464,
  "\u2581PC": 3465,
  "\u2581patient": 3466,
  "\u2581hetki": 3467,
  "\u2581kansallisen": 3468,
  "1,": 3469,
  "\u2581ihminen": 3470,
  "\u2581paikallis": 3471,
  "emme": 3472,
  "\u2581ro": 3473,
  "imi": 3474,
  "\u2581certainly": 3475,
  "\u2581described": 3476,
  "kke": 3477,
  "\u2581feed": 3478,
  "09": 3479,
  "33": 3480,
  "\u2581bar": 3481,
  "\u2581alakohta": 3482,
  "\u2581property": 3483,
  "\u2581pan": 3484,
  "\u2581playing": 3485,
  "\u2581s\u00e4\u00e4nn\u00f6t": 3486,
  "\u2581maahan": 3487,
  "\u2581gives": 3488,
  "\u2581Bar": 3489,
  "\u2581saadaan": 3490,
  "\u2581North": 3491,
  "\u2581my\u00f6nt\u00e4\u00e4": 3492,
  "kku": 3493,
  "\u2581ri": 3494,
  "\u2581tulokset": 3495,
  "rit": 3496,
  "\u2581sufficient": 3497,
  "\u2581monta": 3498,
  "\u2581yhteens\u00e4": 3499,
  "\"?": 3500,
  "\u2581laws": 3501,
  "\u2581soveltaa": 3502,
  "US": 3503,
  "\u2581enable": 3504,
  "\u2581American": 3505,
  "\u2581Sch": 3506,
  "\u2581kanssaan": 3507,
  "\u2581Implementing": 3508,
  "\u2581function": 3509,
  "\u2581institution": 3510,
  "\u2581Miss": 3511,
  "itse": 3512,
  "\u2581contribute": 3513,
  "\u2581Cor": 3514,
  "\u2581Kukaan": 3515,
  "\u2581hyv\u00e4n": 3516,
  "\u2581Done": 3517,
  "\u2581Fa": 3518,
  "\u2581ru": 3519,
  "5/": 3520,
  "\u2581Australia": 3521,
  "\u2581varmistettava": 3522,
  "\u2581hauskaa": 3523,
  "\u2581note": 3524,
  "\u2581Sano": 3525,
  "\u2581practices": 3526,
  "taso": 3527,
  "\u2581Financial": 3528,
  "nnan": 3529,
  "\u2581aloilla": 3530,
  "\u2581increasing": 3531,
  "\u2581stock": 3532,
  "\u2581saatu": 3533,
  "H\u00e4n": 3534,
  "\u2581tarpeeksi": 3535,
  "tava": 3536,
  "politiikka": 3537,
  "\u2581onnistu": 3538,
  "\u2581numbers": 3539,
  "lt": 3540,
  "\u2581ahead": 3541,
  "\u2581taso": 3542,
  "\u2581crime": 3543,
  "\u2581followed": 3544,
  "\u2581Am": 3545,
  "\u2581climate": 3546,
  "\u2581duties": 3547,
  "\u2010": 3548,
  "\u2581fundamental": 3549,
  "\u2581record": 3550,
  "\u2581mik\u00e4\u00e4n": 3551,
  "\u2581authorised": 3552,
  "\u2581combination": 3553,
  "maton": 3554,
  "\u2581kertoi": 3555,
  "\u2581v\u00e4lisen": 3556,
  "ssaan": 3557,
  "\u2581mielest\u00e4ni": 3558,
  "1999": 3559,
  "\u2581kunkin": 3560,
  "\u2581art": 3561,
  "\u2581bio": 3562,
  "\u2581lains\u00e4\u00e4d\u00e4nt\u00f6": 3563,
  "\u2581entist\u00e4": 3564,
  "\u2581requires": 3565,
  "\u2581clinical": 3566,
  "\u2581Affairs": 3567,
  "\u2581ratkaisu": 3568,
  "tukset": 3569,
  "\u2581ETA": 3570,
  "\u2581istu": 3571,
  "\u2581Italy": 3572,
  "\u2581Ca": 3573,
  "\u2581package": 3574,
  "46": 3575,
  "\u2581seven": 3576,
  "\u2581Lue": 3577,
  "\u2581Saat": 3578,
  "paikka": 3579,
  "RE": 3580,
  "ttele": 3581,
  "\u2581amendment": 3582,
  "har": 3583,
  "\u2581comply": 3584,
  "mp": 3585,
  "iv": 3586,
  "PA": 3587,
  "\u2581Vai": 3588,
  "not": 3589,
  "\u2581regulations": 3590,
  "\u2581concluded": 3591,
  "ated": 3592,
  "\u2581ket\u00e4\u00e4n": 3593,
  "\u2581Osa": 3594,
  "uksista": 3595,
  "\u2581City": 3596,
  "\u2581valtio": 3597,
  "\u2581meist\u00e4": 3598,
  "\u2581Mi": 3599,
  "\u2581haluaisin": 3600,
  "\u2581p\u00e4\u00e4se": 3601,
  "\u2581liike": 3602,
  "\u2581pakko": 3603,
  "\u2581asetuksella": 3604,
  "\u2581onkin": 3605,
  "\u2581Har": 3606,
  "\u2581hate": 3607,
  "\u2581laying": 3608,
  "\u2581volume": 3609,
  "\u2581located": 3610,
  "\u2581sano": 3611,
  "\u2581Father": 3612,
  "\u2581proceedings": 3613,
  "\u2581possibility": 3614,
  "\u2581lehdess\u00e4": 3615,
  "\u2581Bull": 3616,
  "\u2581nyky\u00e4\u00e4n": 3617,
  "\u2581implemented": 3618,
  "\u2581finally": 3619,
  "\u2581turned": 3620,
  "\u2581caused": 3621,
  "\u2581aware": 3622,
  "\u2581arvoisa": 3623,
  "lais": 3624,
  "\u2581!": 3625,
  "\u2581fruit": 3626,
  "\u2581kaupungin": 3627,
  "ish": 3628,
  "\u2581sellainen": 3629,
  "\u2581Olisi": 3630,
  "\u2581choose": 3631,
  "\u2581j\u00e4rjestelm\u00e4n": 3632,
  "\u2581sometimes": 3633,
  "\u2581suu": 3634,
  "ikka": 3635,
  "\u2581Members": 3636,
  "\u2581\u00c4lk\u00e4\u00e4": 3637,
  "\u258195": 3638,
  "ilt\u00e4": 3639,
  "\u2581Service": 3640,
  "\u2581website": 3641,
  "97": 3642,
  "\u2581Action": 3643,
  "\u2581Russia": 3644,
  "\u2581German": 3645,
  "\u2581domestic": 3646,
  "\u2581hallituksen": 3647,
  "\u2581Tehty": 3648,
  "\u2581olisivat": 3649,
  "\u2581asking": 3650,
  "\u2581starting": 3651,
  "sse": 3652,
  "ps": 3653,
  "\u2581verta": 3654,
  "\u2581Does": 3655,
  "ON": 3656,
  "\u2581simple": 3657,
  "j\u00e4rjestelmien": 3658,
  "bit": 3659,
  "\u2581hu": 3660,
  "\u2581myynti": 3661,
  "\u2581holding": 3662,
  "\u2581Uusi": 3663,
  "\u2581maailmassa": 3664,
  "\u2581binding": 3665,
  "\u2581Protocol": 3666,
  "\u2581tuotteen": 3667,
  "\u2581contracts": 3668,
  "\u2581vastaava": 3669,
  "\u2581sanoin": 3670,
  "\u2581vaikutuksia": 3671,
  "\u2581construction": 3672,
  "ted": 3673,
  "\u2581exercise": 3674,
  "\u2581ero": 3675,
  "\u2581Komitea": 3676,
  "\u2581laske": 3677,
  "\u2581King": 3678,
  "\u2581beyond": 3679,
  "m\u00e4ll\u00e4": 3680,
  "asetuksen": 3681,
  "\u2581software": 3682,
  "hoito": 3683,
  "\u2581sellaisen": 3684,
  "\u2581markkinoilla": 3685,
  "\u2581ensuring": 3686,
  "2,": 3687,
  "\u2581y": 3688,
  "\u2581tuomioistuin": 3689,
  "\u2581tunnin": 3690,
  "\u2581ju": 3691,
  "mail": 3692,
  "\u2581speed": 3693,
  "\u2581undertakings": 3694,
  "2001": 3695,
  "\u2581dog": 3696,
  "\u2581reporting": 3697,
  "ised": 3698,
  "\u2581expressed": 3699,
  "\u2581indicated": 3700,
  "\u2581Frank": 3701,
  "\u2581somebody": 3702,
  "che": 3703,
  "ohjelma": 3704,
  "ence": 3705,
  "sivat": 3706,
  "-1": 3707,
  "\u2581base": 3708,
  "\u2581v\u00e4litt\u00f6m\u00e4sti": 3709,
  "\u2581Tri": 3710,
  "\u2581computer": 3711,
  "\u2581kon": 3712,
  "\u2581committee": 3713,
  "les": 3714,
  "\u2581(1": 3715,
  "\u2581affect": 3716,
  "\u2581KOM": 3717,
  "\u2581boys": 3718,
  "\u2581everybody": 3719,
  "kuu": 3720,
  "03": 3721,
  "\u2581users": 3722,
  "\u2581muodossa": 3723,
  "\u2581kan": 3724,
  "lia": 3725,
  "08": 3726,
  "\u2581pick": 3727,
  "No": 3728,
  "utu": 3729,
  "\u2581Maa": 3730,
  "ron": 3731,
  "\u2581lapsia": 3732,
  "\u2581although": 3733,
  "\u2581150": 3734,
  "48": 3735,
  "\u2581vessels": 3736,
  "ji": 3737,
  "\u2581euron": 3738,
  "ts": 3739,
  "ek": 3740,
  "\u2581Security": 3741,
  "\u2581moving": 3742,
  "\u2581sick": 3743,
  "\u2581missing": 3744,
  "\u2581alkoi": 3745,
  "\u2581kotona": 3746,
  "\u2581IT": 3747,
  "\u2581manner": 3748,
  "ber": 3749,
  "\u2581luoda": 3750,
  "\u2581\u00e4l\u00e4": 3751,
  "\u2581independent": 3752,
  "\u2581luku": 3753,
  "vasta": 3754,
  "\u2581kaupunki": 3755,
  "\u2581Each": 3756,
  "\u258142": 3757,
  "\u2581Kar": 3758,
  "\u2581leaving": 3759,
  "\u2581el\u00e4": 3760,
  "uksiin": 3761,
  "\u2581tavoitteiden": 3762,
  "\u2581ette": 3763,
  "\u2581helmikuuta": 3764,
  "\u2581amounts": 3765,
  "\u2581medicine": 3766,
  "\u2581joitakin": 3767,
  "ser": 3768,
  "numero": 3769,
  "op": 3770,
  "\u2581kasvi": 3771,
  "\u2581separate": 3772,
  "\u2581legislative": 3773,
  "\u2581mukainen": 3774,
  "\u2581floor": 3775,
  "\u2581m\u00e4\u00e4r\u00e4n": 3776,
  "39": 3777,
  "\u2581talo": 3778,
  "\u2581Joint": 3779,
  "\u2581medium": 3780,
  "\u2581Pre": 3781,
  "\u2581coordination": 3782,
  "\u2581Ette": 3783,
  "\u2581Policy": 3784,
  "\u25812:": 3785,
  "\u2581kuluttua": 3786,
  "\u2581observed": 3787,
  "\u2581Finally": 3788,
  "jille": 3789,
  "\u2581muutettuna": 3790,
  "\u2581difference": 3791,
  "\u2581reached": 3792,
  "vuus": 3793,
  "\u2581enterprises": 3794,
  "\u2581selv\u00e4\u00e4": 3795,
  "\u2581structure": 3796,
  "\u2581tavoite": 3797,
  "38": 3798,
  "\u2581laaja": 3799,
  "\u2581Toimi": 3800,
  "\u2581units": 3801,
  "vara": 3802,
  "\u2581sijaitsee": 3803,
  "ikko": 3804,
  "\u2581(2": 3805,
  "len": 3806,
  "\u2581j\u00e4senvaltio": 3807,
  "3/": 3808,
  "AT": 3809,
  "\u2581Ab": 3810,
  "\u2581vienti": 3811,
  "\u2581v\u00e4himm\u00e4is": 3812,
  "\u2581program": 3813,
  "\u2581Toinen": 3814,
  "\u2581operational": 3815,
  "ham": 3816,
  "\u2581hoitaa": 3817,
  "\u2581tuolla": 3818,
  "\u2581tuotteita": 3819,
  "\u2581julkaisu": 3820,
  "\u2581sovellettava": 3821,
  "\u2581sort": 3822,
  "\u2581usually": 3823,
  "\u2581regular": 3824,
  "\u2581luonnon": 3825,
  "\u25811:": 3826,
  "\u2581Contact": 3827,
  "\u2581lausunto": 3828,
  "\u2581instead": 3829,
  "\u2581cash": 3830,
  "\u00c3\u00a4": 3831,
  "\u2581j\u00e4senvaltiossa": 3832,
  "\u2581dangerous": 3833,
  "\u2581halunnut": 3834,
  "\u2581tarkastus": 3835,
  "\u2581markkinoiden": 3836,
  "\u2581juo": 3837,
  "\u2581tiennyt": 3838,
  "uutta": 3839,
  "\u2581pass": 3840,
  "\u2581FOR": 3841,
  "\u2581Which": 3842,
  "aatti": 3843,
  "\u2581[1],": 3844,
  "<": 3845,
  "\u2581Very": 3846,
  "hy": 3847,
  "\u2581obtained": 3848,
  "\u258165": 3849,
  "\u2581Max": 3850,
  "\u2581pen": 3851,
  "\u2581rouva": 3852,
  "ant": 3853,
  "\u2581Green": 3854,
  "\u2581initiatives": 3855,
  "37": 3856,
  "\u2581nuclear": 3857,
  "\u2581lapsen": 3858,
  "\u2581factors": 3859,
  "\u2581happens": 3860,
  "\u2581EN": 3861,
  "\u25811).": 3862,
  "\u2581sources": 3863,
  "tet\u00e4\u00e4n": 3864,
  "\u2581While": 3865,
  "\u2581commitment": 3866,
  "oitu": 3867,
  "\u2581distribution": 3868,
  "\u2581Research": 3869,
  "tuotteiden": 3870,
  "\u2581implement": 3871,
  "otto": 3872,
  "\u2581\u00e4\u00e4ni": 3873,
  "\u2581katsoa": 3874,
  "\u2581kokonaan": 3875,
  "teiden": 3876,
  "all": 3877,
  "\u2581meetings": 3878,
  "\u00e1": 3879,
  "\u2581ability": 3880,
  "mm\u00e4": 3881,
  "\u2581opening": 3882,
  "\u2581halusi": 3883,
  "\u2581teill\u00e4": 3884,
  "\u2581quickly": 3885,
  "\u2581eik\u00f6": 3886,
  "\u2581win": 3887,
  "\u2581vastaavat": 3888,
  "laiset": 3889,
  "KO": 3890,
  "\u2581ymp\u00e4ri": 3891,
  "\u2581pyysi": 3892,
  "\u2581s\u00e4\u00e4nt\u00f6j\u00e4": 3893,
  "tteko": 3894,
  "\u2581White": 3895,
  "hun": 3896,
  "68": 3897,
  "\u2581military": 3898,
  "\u2581Itse": 3899,
  "\u2581otettu": 3900,
  "aste": 3901,
  "\u2581muutoksia": 3902,
  "isation": 3903,
  "\u2581(1)": 3904,
  "\u2581music": 3905,
  "\u2581draw": 3906,
  "\u2581Health": 3907,
  "net": 3908,
  "\u2581ulkopuolella": 3909,
  "\u2581tarkoitetaan": 3910,
  "\u2581k\u00e4yt\u00f6st\u00e4": 3911,
  "\u2581asiaan": 3912,
  "pin": 3913,
  "\u2581worth": 3914,
  "\u2581build": 3915,
  "\u2581networks": 3916,
  "\u2581arvioi": 3917,
  "\u2581pienen": 3918,
  "tulo": 3919,
  "\u2581mouth": 3920,
  "ksia": 3921,
  "\u2581Oliko": 3922,
  "\u2581Olette": 3923,
  "\u2581HAS": 3924,
  "\u2581aloittaa": 3925,
  "\u2581continued": 3926,
  "\u2581Pohjois": 3927,
  "kirja": 3928,
  "\u2581High": 3929,
  "\u2581selv\u00e4": 3930,
  "\u2581planning": 3931,
  "\u2581highly": 3932,
  "\u2581exposure": 3933,
  "\u2581dis": 3934,
  "\u2581merkitsee": 3935,
  "vy": 3936,
  "\u2581accepted": 3937,
  "\u2581search": 3938,
  "\u2581tiedote": 3939,
  "\u2581voice": 3940,
  "\u2581t\u00f6it\u00e4": 3941,
  "\u2581toimivat": 3942,
  "\u2581kovin": 3943,
  "\u2581heist\u00e4": 3944,
  "\u2581totesi": 3945,
  "\u2581device": 3946,
  "\u2581maailmanlaajuis": 3947,
  "\u2581elintarvike": 3948,
  "aatio": 3949,
  "\u2581fear": 3950,
  "ukseen": 3951,
  "ng": 3952,
  "\u2581kerta": 3953,
  "\u2581neuvo": 3954,
  "\u2581hoidon": 3955,
  "\u2581touch": 3956,
  "gu": 3957,
  "\u2581tason": 3958,
  "fer": 3959,
  "\u2581Ranskan": 3960,
  "\u2581net": 3961,
  "\u2581Eli": 3962,
  "\u2581eiv\u00e4tk\u00e4": 3963,
  "\u2581pal": 3964,
  "palvelujen": 3965,
  "\u2581v\u00e4linen": 3966,
  "\u2581m\u00e4\u00e4rin": 3967,
  "\u2581cultural": 3968,
  "\u2581inform": 3969,
  "\u2581yhteisty\u00f6n": 3970,
  "\u2581sister": 3971,
  "nd": 3972,
  "her": 3973,
  "mman": 3974,
  "\u2581Nice": 3975,
  "\u2581minuuttia": 3976,
  "based": 3977,
  "\u2581calling": 3978,
  "\u2581Read": 3979,
  "io": 3980,
  "\u2581submit": 3981,
  "\u2581fields": 3982,
  "maat": 3983,
  "\u2581yhti\u00f6": 3984,
  "tunut": 3985,
  "\u2581miss": 3986,
  "\u2581etc": 3987,
  "\u2581kertoo": 3988,
  "\u2581tilasto": 3989,
  "ivat": 3990,
  "\u258143": 3991,
  "\u2581drug": 3992,
  "\u2581pk": 3993,
  "\u2581Spain": 3994,
  "\u2581stupid": 3995,
  "\u2581menettely": 3996,
  "\u2581laatu": 3997,
  "off": 3998,
  "\u2581failure": 3999,
  "\u2581card": 4000,
  "uksesta": 4001,
  "\u2581Before": 4002,
  "za": 4003,
  "\u2581vii": 4004,
  "\u2581t\u00e4ytt\u00e4\u00e4": 4005,
  "\u2581toista": 4006,
  "\u2581fuel": 4007,
  "\u2581nuo": 4008,
  "\u2581tyyppi": 4009,
  "\u2581saisi": 4010,
  "viin": 4011,
  "\u2581lasku": 4012,
  "\u2581pohja": 4013,
  "\u2581Ireland": 4014,
  "tiedot": 4015,
  "\u2581kuluttaja": 4016,
  "\u2581alueilla": 4017,
  "\u2581kymmenen": 4018,
  "34": 4019,
  "TA": 4020,
  "ee": 4021,
  "\u2581ymm\u00e4rt\u00e4\u00e4": 4022,
  "\u2581alku": 4023,
  "mi\u00e4": 4024,
  "\u2581Koko": 4025,
  "sopimus": 4026,
  "\u2581maintain": 4027,
  "\u2581rakennus": 4028,
  "\u2581olisin": 4029,
  "\u2581tuomio": 4030,
  "\u2581puitteissa": 4031,
  "ec": 4032,
  "CO": 4033,
  "\u25813.": 4034,
  "ating": 4035,
  "\u2581physical": 4036,
  "\u2581huomattavasti": 4037,
  "\u2581h\u00e4": 4038,
  "\u2581damage": 4039,
  "\u2581traffic": 4040,
  "RI": 4041,
  "\u2581Juuri": 4042,
  "\u2581kansainv\u00e4lisen": 4043,
  "tor": 4044,
  "\u2581undertaking": 4045,
  "\u2581Romania": 4046,
  "\u2581customers": 4047,
  "\u2581hankinta": 4048,
  "\u2581ty\u00f6ntekij\u00f6iden": 4049,
  "\u2581Suomi": 4050,
  "\u2581cool": 4051,
  "Ma": 4052,
  "\u2581YK": 4053,
  "\u2581kuullut": 4054,
  "\u2581vei": 4055,
  "yritysten": 4056,
  "\u2581therapy": 4057,
  "AR": 4058,
  "\u2581Sweden": 4059,
  "py": 4060,
  "\u2581ran": 4061,
  "\u2581tarvittavat": 4062,
  "\u2581otherwise": 4063,
  "\u2581Euratom": 4064,
  "\u2581picture": 4065,
  "kunta": 4066,
  "\u2581teko": 4067,
  "\u2581solutions": 4068,
  "\u2581debt": 4069,
  "\u2581conclusions": 4070,
  "use": 4071,
  "\u2581komissiota": 4072,
  "\u2581double": 4073,
  "\u2581vakuutus": 4074,
  "\u2581vuodesta": 4075,
  "\u2581meat": 4076,
  "\u2581Menn\u00e4\u00e4n": 4077,
  "\u2581muille": 4078,
  "\u2581Air": 4079,
  "if": 4080,
  "isto": 4081,
  "\u2581Minister": 4082,
  "44": 4083,
  "\u2581Although": 4084,
  "\u2581Market": 4085,
  "0/": 4086,
  "\u2581Office": 4087,
  "\u2581sellaisia": 4088,
  "gin": 4089,
  "SA": 4090,
  "\u2581Totta": 4091,
  "\u2581ehdot": 4092,
  "FR": 4093,
  "pen": 4094,
  "\u2581kysymyksi\u00e4": 4095,
  "tuksia": 4096,
  "\u2581sun": 4097,
  "\u2581Korvataan": 4098,
  "\u2581yst\u00e4v\u00e4": 4099,
  "\u2581tri": 4100,
  "neuvosto": 4101,
  "\u258144": 4102,
  "\u2581enjoy": 4103,
  "\u2581saattavat": 4104,
  "\u2581Joku": 4105,
  "\u2581pidett\u00e4v\u00e4": 4106,
  "ER": 4107,
  "\u2581k\u00e4yd\u00e4": 4108,
  "\u2581hallitus": 4109,
  "-2": 4110,
  "\u2581conclusion": 4111,
  "nnut": 4112,
  "\u2581virallisessa": 4113,
  "\u2581Presidency": 4114,
  "\u2581Siell\u00e4": 4115,
  "\u2581aren": 4116,
  "\u2581kest\u00e4": 4117,
  "\u2581kuu": 4118,
  "m\u00e4ss\u00e4": 4119,
  "\u2581Act": 4120,
  "\u2581taka": 4121,
  "\u2581saakka": 4122,
  "\u2581liikaa": 4123,
  "sesti": 4124,
  "\u2581tila": 4125,
  "\u2581toisin": 4126,
  "tusta": 4127,
  "\u2581community": 4128,
  "\u2581poor": 4129,
  "\u2581Could": 4130,
  "toista": 4131,
  "\u2581pankki": 4132,
  "\u2581lii": 4133,
  "pan": 4134,
  "2000": 4135,
  "\u2581aikoo": 4136,
  "\u2581omaa": 4137,
  "\u2581steps": 4138,
  "\u2581Um": 4139,
  "47": 4140,
  "\u2581obligation": 4141,
  "\u2581luoja": 4142,
  "\u2581erilaisia": 4143,
  "\u2581cold": 4144,
  "\u2581stated": 4145,
  "\u2581henki": 4146,
  "\u2581advice": 4147,
  "\u2581melko": 4148,
  "\u2581korostaa": 4149,
  "tuki": 4150,
  "UT": 4151,
  "\u2581serve": 4152,
  "\u2581varojen": 4153,
  "07": 4154,
  "\u2581N\u00e4iden": 4155,
  "\u2581tests": 4156,
  "\u2581Sure": 4157,
  "\u2581electricity": 4158,
  "\u2581enk\u00e4": 4159,
  "\u2581expect": 4160,
  "gg": 4161,
  "\u2581Paris": 4162,
  "YT": 4163,
  "\u2581Furthermore": 4164,
  "\u2581muutokset": 4165,
  "\u2581toimitettava": 4166,
  "\u2581l\u00e4\u00e4ke": 4167,
  "\u2581ali": 4168,
  "\u2581rooli": 4169,
  "\u2581wine": 4170,
  "\u2581edellytykset": 4171,
  "iseen": 4172,
  "\u2581mielest\u00e4": 4173,
  "\u2581Tarvitsen": 4174,
  "\u2581affected": 4175,
  "\u2581kesken": 4176,
  "\u2581representative": 4177,
  "\u2581equivalent": 4178,
  "\u2581explain": 4179,
  "\u2581teemme": 4180,
  "\u2581w": 4181,
  "\u2581promise": 4182,
  "\u2581poissa": 4183,
  "\u2581valmistelu": 4184,
  "\u2581remains": 4185,
  "\u2581v\u00e4hent\u00e4\u00e4": 4186,
  "\u2581annos": 4187,
  "\u2581huo": 4188,
  "\u2581ehdotus": 4189,
  "\u2581latest": 4190,
  "\u2581maintenance": 4191,
  "\u2581Help": 4192,
  "\u2581Data": 4193,
  "\u2581oikeutta": 4194,
  "\u2581heading": 4195,
  "\u2581seuranta": 4196,
  "\u2581storage": 4197,
  "UN": 4198,
  "\u2581pysy": 4199,
  "\u2581olevaa": 4200,
  "st": 4201,
  "\u2581ADOPT": 4202,
  "\u2581puolella": 4203,
  "\u2581toteutettava": 4204,
  "\u2581k\u00e4yt\u00f6ss\u00e4": 4205,
  "\u2581kuusi": 4206,
  "\u2581terve": 4207,
  "\u2581correct": 4208,
  "\u2581olo": 4209,
  "ding": 4210,
  "\u2581partner": 4211,
  "palvelut": 4212,
  "\u2581steel": 4213,
  "\u2581Hyvin": 4214,
  "\u2581koskevassa": 4215,
  "\u2581nro": 4216,
  "\u2581komitea": 4217,
  "\u2581initial": 4218,
  "55": 4219,
  "chi": 4220,
  "\u2581tasavallan": 4221,
  "\u2581itsens\u00e4": 4222,
  "\u2581Minusta": 4223,
  "\u2581helposti": 4224,
  "43": 4225,
  "om": 4226,
  "paino": 4227,
  "in\u00e4": 4228,
  "\u2581challenges": 4229,
  "\u2581piece": 4230,
  "met": 4231,
  "\u2581considers": 4232,
  "\u2581born": 4233,
  "\u2581War": 4234,
  "2003": 4235,
  "auto": 4236,
  "\u2581Stop": 4237,
  "\u2581places": 4238,
  "2014": 4239,
  "ny": 4240,
  "ori": 4241,
  "\u2581proper": 4242,
  "\u2581kanssasi": 4243,
  "\u2581ilo": 4244,
  "\u2581Kor": 4245,
  "\u2581efficient": 4246,
  "timme": 4247,
  "\u2581viestint\u00e4": 4248,
  "v\u00e4li": 4249,
  "\u2581cell": 4250,
  "\u2581energian": 4251,
  "\u2581version": 4252,
  "\u2581soittaa": 4253,
  "\u00e4r": 4254,
  "\u2581seuraavan": 4255,
  "\u2581vaiheessa": 4256,
  "\u258155": 4257,
  "\u2581osallistua": 4258,
  "\u2581wide": 4259,
  "\u2581Centre": 4260,
  "\u2581Special": 4261,
  "\u2581l\u00e4hde": 4262,
  "\u25811993": 4263,
  "\u2581comments": 4264,
  "tteli": 4265,
  "\u2581learning": 4266,
  "\u2581yhteinen": 4267,
  "valta": 4268,
  "\u2581feet": 4269,
  "mpia": 4270,
  "\u2581Ty": 4271,
  "\u2581T\u00e4h\u00e4n": 4272,
  "\u2581olit": 4273,
  "ue": 4274,
  "\u2581Ai": 4275,
  "\u2581Was": 4276,
  "peli": 4277,
  "\u2581mieli": 4278,
  "teli": 4279,
  "\u2581earlier": 4280,
  "\u2581offers": 4281,
  "ras": 4282,
  "\u2581category": 4283,
  "\u2581Price": 4284,
  "\u2581niill\u00e4": 4285,
  "\u2581discuss": 4286,
  "\u2581valta": 4287,
  "mmat": 4288,
  "\u2581YOU": 4289,
  "\u2581tulossa": 4290,
  "\u25811990": 4291,
  "\u2581julkaistu": 4292,
  "\u2581sis\u00e4ltyy": 4293,
  "\u2581T\u00c4M\u00c4N": 4294,
  "\u2581vertailu": 4295,
  "oksi": 4296,
  "\u2581tuho": 4297,
  "\u2581conduct": 4298,
  "\u2581johtuu": 4299,
  ".11": 4300,
  "He": 4301,
  "\u2581Keski": 4302,
  "\u2581j\u00e4senvaltioille": 4303,
  "\u2581kaasu": 4304,
  "dan": 4305,
  "\u2581lapset": 4306,
  "2012": 4307,
  "\u2581Silloin": 4308,
  "llaan": 4309,
  "\u2581merkityst\u00e4": 4310,
  "\u2581toiseen": 4311,
  "aja": 4312,
  "\u2581acid": 4313,
  "\u2581mahdollisuuksia": 4314,
  "elin": 4315,
  "\u2581closed": 4316,
  "\u2581mukava": 4317,
  "\u258192": 4318,
  "\u2581Mark": 4319,
  "\u2581Saksan": 4320,
  "\u2581aja": 4321,
  "\u2581saatava": 4322,
  "\u2581Lisbon": 4323,
  "\u2581k\u00e4ytett\u00e4v\u00e4": 4324,
  "\u2581secret": 4325,
  "\u2581j\u00e4senten": 4326,
  "\u2581Communication": 4327,
  "\u2581Tee": 4328,
  "\u2581box": 4329,
  "\u2581instructions": 4330,
  "\u2581tavoitteet": 4331,
  "\u2581yritykset": 4332,
  "\u2581hospital": 4333,
  "Re": 4334,
  "\u2581centre": 4335,
  "\u2581kolmansien": 4336,
  "\u2581built": 4337,
  "\u2581murder": 4338,
  "\u2581limits": 4339,
  "\u2581SMEs": 4340,
  "\u2581Ala": 4341,
  "uh": 4342,
  "\u2581s\u00e4\u00e4": 4343,
  "\u2581tablets": 4344,
  "\u2581Main": 4345,
  "\u2581requested": 4346,
  "92": 4347,
  "\u2581yhteisty\u00f6ss\u00e4": 4348,
  "\u2581stability": 4349,
  "\u2581muuten": 4350,
  "IA": 4351,
  "41": 4352,
  "ium": 4353,
  "\u2581dinner": 4354,
  "\u2581suunniteltu": 4355,
  "\u2581practical": 4356,
  "empi": 4357,
  "\u258101": 4358,
  "vis": 4359,
  "\u2581muutos": 4360,
  "tojen": 4361,
  "\u2581saan": 4362,
  "\u2581via": 4363,
  "puoli": 4364,
  "\u2581lines": 4365,
  "\u2581Ga": 4366,
  "\u2581raised": 4367,
  "\u2581Red": 4368,
  "................": 4369,
  "\u2581k\u00e4yt\u00e4": 4370,
  "\u2581prosentin": 4371,
  "ig": 4372,
  "oja": 4373,
  "\u2581kaikilla": 4374,
  "\u2581saaneet": 4375,
  "\u2581Time": 4376,
  "\u258141": 4377,
  "\u2581During": 4378,
  "What": 4379,
  "ze": 4380,
  "\u2581(2)": 4381,
  "\u2581priorities": 4382,
  "2011": 4383,
  "\u2581border": 4384,
  "\u2581led": 4385,
  "tua": 4386,
  "\u2581minuun": 4387,
  "\u2581Mary": 4388,
  "\u2265": 4389,
  "\u2581extra": 4390,
  "\u2581looked": 4391,
  "ltaan": 4392,
  "\u2581Witnesses": 4393,
  "\u2581location": 4394,
  "\u2581ettet": 4395,
  "k\u00e4y": 4396,
  "\u2581hy\u00f6ty\u00e4": 4397,
  "\u2581students": 4398,
  "\u2581malli": 4399,
  "\u2581entered": 4400,
  "keskus": 4401,
  "\u2581mainitun": 4402,
  "\u2581recommendations": 4403,
  "\u2581negative": 4404,
  "\u2581businesses": 4405,
  "\u2581extension": 4406,
  "\u2581components": 4407,
  "\u2581ty\u00f6llisyys": 4408,
  "\u25812,": 4409,
  "ula": 4410,
  "\u2581machine": 4411,
  "\u2581tuotteet": 4412,
  "\u2581tasks": 4413,
  "\u2581yksityis": 4414,
  "\u2581vaikeaa": 4415,
  "\u2581kiitt\u00e4\u00e4": 4416,
  "\u2581eurooppalaisen": 4417,
  "\u2581tarjota": 4418,
  "\u2581structural": 4419,
  "\u2581viiden": 4420,
  "\u2581facilities": 4421,
  "\u2581sanonut": 4422,
  "\u2581release": 4423,
  "\u2581Vie": 4424,
  "\u2581article": 4425,
  "\u2581Energy": 4426,
  "gan": 4427,
  "\u2581improving": 4428,
  "\u2581t\u00e4hden": 4429,
  "\u2581effort": 4430,
  "\u2581tilaa": 4431,
  "\u2581banks": 4432,
  "\u2581kyseisten": 4433,
  "\u2581meant": 4434,
  "\u2581George": 4435,
  "osan": 4436,
  "laisten": 4437,
  "\u2581Ver": 4438,
  "\u2581USA": 4439,
  "\u2581%)": 4440,
  "\u2581teollisuus": 4441,
  "ent": 4442,
  "\u2581Put": 4443,
  "\u2581lu": 4444,
  "\u2581skills": 4445,
  "\u2581rise": 4446,
  "\u2581jona": 4447,
  "\u2581began": 4448,
  "1)": 4449,
  "\u2581severe": 4450,
  "\u2581spent": 4451,
  "\u2581molemmat": 4452,
  "\u2581valo": 4453,
  "\u2581transparency": 4454,
  "\u2581niiss\u00e4": 4455,
  "\u2581consultation": 4456,
  "\u2581placed": 4457,
  "\u2581ilmoittaa": 4458,
  "\u2581osaksi": 4459,
  "\u2581eteenp\u00e4in": 4460,
  "\u2581infrastruktuuri": 4461,
  "\u2581takana": 4462,
  "\u2581Eik\u00e4": 4463,
  "\u2581actual": 4464,
  "\u2581Casino": 4465,
  "\u2581Madam": 4466,
  "\u2581criminal": 4467,
  "85": 4468,
  "\u2581perhaps": 4469,
  "\u2581tuonti": 4470,
  "\u2581testi": 4471,
  "\u2581former": 4472,
  "\u2581round": 4473,
  "\u2581Pid\u00e4n": 4474,
  "koodi": 4475,
  "\u2581begin": 4476,
  "\u2581System": 4477,
  "\u2581mukaiset": 4478,
  "\u2581success": 4479,
  "bu": 4480,
  "\u2581Sea": 4481,
  "\u2581mission": 4482,
  "\u0161": 4483,
  "\u2581doubt": 4484,
  "\u2581kehityst\u00e4": 4485,
  "\u2581supported": 4486,
  "78": 4487,
  "reita": 4488,
  "\u2581my\u00f6t\u00e4": 4489,
  "\u2581Gu": 4490,
  "\u2581asema": 4491,
  "\u2581straight": 4492,
  ".3.": 4493,
  "\u2581paha": 4494,
  "\u2581vaatimuksia": 4495,
  "\u2581schemes": 4496,
  "\u2581aluksi": 4497,
  "\u2581facilitate": 4498,
  "\u2581contain": 4499,
  "\u2581definition": 4500,
  "65": 4501,
  "\u2581showed": 4502,
  "hen": 4503,
  "\u2581employees": 4504,
  "\u2581my\u00f6sk\u00e4\u00e4n": 4505,
  "\u2581sanoen": 4506,
  "\u2581direction": 4507,
  "\u2581leading": 4508,
  "\u2581catch": 4509,
  "kauden": 4510,
  "zi": 4511,
  "\u2581integrated": 4512,
  "cause": 4513,
  "\u2581determine": 4514,
  "\u2581Most": 4515,
  "\u2581koskevasta": 4516,
  "politiikkaa": 4517,
  "\u2581sale": 4518,
  "\u2581sota": 4519,
  "\u2581Hold": 4520,
  "\u2581signed": 4521,
  "\u2581kolmannen": 4522,
  "markkinoiden": 4523,
  "\u2581informed": 4524,
  "\u2581surface": 4525,
  "hdi": 4526,
  "\u2581indeed": 4527,
  "\u2581Use": 4528,
  "\u2581johtaja": 4529,
  "ung": 4530,
  "\u2581happening": 4531,
  "\u2581katsotaan": 4532,
  "simme": 4533,
  "\u2581WTO": 4534,
  "\u2581drugs": 4535,
  "\u2581Kai": 4536,
  "\u2581pohjalta": 4537,
  "\u2581keskustelu": 4538,
  "\u2581consideration": 4539,
  "European": 4540,
  "vero": 4541,
  "\u2581sitting": 4542,
  "\u2581introduced": 4543,
  "\u2581Sy": 4544,
  "isti": 4545,
  "\u2581parlamentille": 4546,
  "bb": 4547,
  "ua": 4548,
  "\u2581anyway": 4549,
  "tis": 4550,
  "\u2581Human": 4551,
  "\u2581accession": 4552,
  "\u2581k\u00e4sitell\u00e4\u00e4n": 4553,
  "\u2581yll\u00e4": 4554,
  "\u25811)": 4555,
  "64": 4556,
  "\u2581pelk\u00e4st\u00e4\u00e4n": 4557,
  "\u2581developments": 4558,
  "ning": 4559,
  "\u2581Moreover": 4560,
  "\u2581Saksa": 4561,
  "ag": 4562,
  "\u2581neuvostolle": 4563,
  "\u2581takaa": 4564,
  "k\u00e4ytt\u00f6": 4565,
  "\u2581join": 4566,
  "06": 4567,
  "\u2581fresh": 4568,
  "viranomaisten": 4569,
  "\u2581veden": 4570,
  "\u258109": 4571,
  "\u2581liha": 4572,
  "\u2581Greece": 4573,
  "\u2581grant": 4574,
  "\u2581seitsem\u00e4n": 4575,
  "\u258147": 4576,
  "\u2581recently": 4577,
  "\u2581paikan": 4578,
  "our": 4579,
  "\u2581write": 4580,
  "\u25811992": 4581,
  "\u2581samaan": 4582,
  "form": 4583,
  "\u00e4\u00e4": 4584,
  "\u2581glad": 4585,
  "\u2581yleisesti": 4586,
  "\u2581uudet": 4587,
  "\u2581talousarvio": 4588,
  "\u2581Under": 4589,
  "\u2581birth": 4590,
  "\u25813:": 4591,
  "OS": 4592,
  "\u2581nuori": 4593,
  "\u2581Sha": 4594,
  "\u2581plants": 4595,
  "\u2581manufacturer": 4596,
  "\u2581unto": 4597,
  "\u258152": 4598,
  "\u2581Son": 4599,
  "ukka": 4600,
  "\u00ab": 4601,
  "\u2581Sain": 4602,
  "\u2581virhe": 4603,
  "ointi": 4604,
  "\u2581mukaisia": 4605,
  "\u2581lains\u00e4\u00e4d\u00e4nt\u00f6\u00e4": 4606,
  "\u2581saavuttaa": 4607,
  "\u2581judgment": 4608,
  "\u2581Auto": 4609,
  "4-": 4610,
  "\u2581kehitt\u00e4\u00e4": 4611,
  "\u2581representatives": 4612,
  "\u2581ihme": 4613,
  "\u2581halu": 4614,
  "\u2581produce": 4615,
  "si\u00e4": 4616,
  "3,": 4617,
  "tia": 4618,
  "\u2581Airport": 4619,
  "\u2581Table": 4620,
  "\u2581budgetary": 4621,
  "\u2581addressed": 4622,
  "mun": 4623,
  "\u2581ourselves": 4624,
  "tason": 4625,
  "\u2581presence": 4626,
  "\u2581Puheenjohtaja": 4627,
  "\u2581Ad": 4628,
  "\u2581kaikkiin": 4629,
  "\u2581miest\u00e4": 4630,
  "\u2581internet": 4631,
  "\u2581kysy\u00e4": 4632,
  "\u2581Ni": 4633,
  "TE": 4634,
  "\u2581alusta": 4635,
  "66": 4636,
  "\u2581p\u00e4\u00e4asiassa": 4637,
  "\u2581naiset": 4638,
  "\u2581sanotaan": 4639,
  "\u2581minuutin": 4640,
  "\u2581valita": 4641,
  "\u2581Hy": 4642,
  "\u2581Voimme": 4643,
  "\u2581hy": 4644,
  "ang": 4645,
  "\u2581quarter": 4646,
  "49": 4647,
  "\u2581spend": 4648,
  "\u2581elin": 4649,
  "ities": 4650,
  ".2.": 4651,
  "\u2581eight": 4652,
  "\u2581keskus": 4653,
  "\u2581riitt\u00e4\u00e4": 4654,
  "\u2581toimiin": 4655,
  "\u2581completed": 4656,
  "\u2581Israelin": 4657,
  "\u2581super": 4658,
  "\u2581offered": 4659,
  "ppa": 4660,
  "\u2581esitetty": 4661,
  "\u2581mass": 4662,
  "wa": 4663,
  "\u2581Every": 4664,
  "\u2581committed": 4665,
  "\u2581Fi": 4666,
  "\u2581Many": 4667,
  "\u2581Niiden": 4668,
  "\u2581Men": 4669,
  "\u258198": 4670,
  "\u2581technologies": 4671,
  "\u2581percentage": 4672,
  "\u2581koe": 4673,
  "\u2581vaatii": 4674,
  "\u2581S\u00e4\u00e4": 4675,
  "\u2581registered": 4676,
  "\u2581Joka": 4677,
  "\u2581haittavaikutuks": 4678,
  "\u2581maista": 4679,
  "\u2581ryhm\u00e4n": 4680,
  "\u2581[3]": 4681,
  "\u2581vied\u00e4": 4682,
  "\u2581Christians": 4683,
  "\u2581survey": 4684,
  "\u2581400": 4685,
  "\u2581s\u00e4\u00e4nn\u00f6sten": 4686,
  "\u258100": 4687,
  "2007": 4688,
  "ily": 4689,
  "jia": 4690,
  "\u2581Hello": 4691,
  "\u2581tiet\u00e4": 4692,
  "\u2581k\u00e4sittely": 4693,
  "SI": 4694,
  "\u2581attack": 4695,
  "\u2581Herran": 4696,
  "tur": 4697,
  "\u2581claim": 4698,
  "\u2581valmistus": 4699,
  "\u2581List": 4700,
  "\u2581reactions": 4701,
  "\u2581Daniel": 4702,
  "\u2581West": 4703,
  "\u2581Everything": 4704,
  "Euroopan": 4705,
  "ya": 4706,
  "\u2581henkil\u00f6st\u00f6": 4707,
  "\u2581Niink\u00f6": 4708,
  "59": 4709,
  "\u2581encourage": 4710,
  "\u258156": 4711,
  "\u2581kaikilta": 4712,
  "\u2581politiikan": 4713,
  "h\u00e4": 4714,
  "\u2581justice": 4715,
  "\u2581todenn\u00e4k\u00f6isesti": 4716,
  "\u2581competitiveness": 4717,
  "\u2581kyseise": 4718,
  "\u2581resulting": 4719,
  "\u2581bitch": 4720,
  "\u2581osittain": 4721,
  "\u2581approximately": 4722,
  "pt": 4723,
  "\u2581opened": 4724,
  "\u2581applies": 4725,
  "TO": 4726,
  "\u2581vir": 4727,
  "eri": 4728,
  "\u2581heikko": 4729,
  "\u2581neither": 4730,
  "\u2581nime\u00e4": 4731,
  "\u2581vett\u00e4": 4732,
  "\u2581wrote": 4733,
  "\u2581notes": 4734,
  "\u2581aio": 4735,
  "\u2581Luo": 4736,
  "\u2581machines": 4737,
  "\u2581merkitt\u00e4v\u00e4sti": 4738,
  "\u2581add": 4739,
  "\u2581acting": 4740,
  "\u2581Teid\u00e4n": 4741,
  "\u2581introduction": 4742,
  "\u2581paikalla": 4743,
  "\u2581Check": 4744,
  "COM": 4745,
  "\u2581kasvoi": 4746,
  "\u2581recognition": 4747,
  "\u2581hyvi\u00e4": 4748,
  "\u2581veren": 4749,
  "\u2581symptoms": 4750,
  "\u2581Jotkut": 4751,
  "\u2581joukko": 4752,
  "\u2581v\u00e4lit\u00e4": 4753,
  "\u2581East": 4754,
  "\u2581moved": 4755,
  "\u2581influence": 4756,
  "\u2581Kristuksen": 4757,
  "\u2581insulin": 4758,
  "\u2581fa": 4759,
  "\u2581medicines": 4760,
  "\u2581driving": 4761,
  "\u2581drawn": 4762,
  "\u2581noted": 4763,
  "\u2581fisheries": 4764,
  "\u2581discussion": 4765,
  "sel": 4766,
  "\u2581Management": 4767,
  "\u2581investments": 4768,
  "ring": 4769,
  "border": 4770,
  "\u2581declaration": 4771,
  "\u2581kuljetus": 4772,
  "\u2581lupa": 4773,
  "tukseen": 4774,
  "yr": 4775,
  "including": 4776,
  "\u2581eilen": 4777,
  "\u2581toimintaan": 4778,
  "\u2581unemployment": 4779,
  "\u2581transactions": 4780,
  "\u2581Dan": 4781,
  "\u2581operator": 4782,
  "\u2581vastuussa": 4783,
  "\u2581growing": 4784,
  "\u2581kulu": 4785,
  "\u2581categories": 4786,
  "\u2581henkil\u00f6iden": 4787,
  "\u2581reviews": 4788,
  "\u2581Total": 4789,
  "\u2581klo": 4790,
  "\u2581Mihin": 4791,
  "\u2581tehneet": 4792,
  "\u2581kest\u00e4\u00e4": 4793,
  "\u2581Moni": 4794,
  "\u2581ruoka": 4795,
  "\u2581menettelyn": 4796,
  "\u2581avaa": 4797,
  "\u2581mar": 4798,
  "\u2581Kuule": 4799,
  "\u2581corresponding": 4800,
  "\u2581Luoja": 4801,
  "suoja": 4802,
  "\u2581Code": 4803,
  "\u2581spiritual": 4804,
  "\u2581seeing": 4805,
  "\u2581kirjan": 4806,
  "\u2581press": 4807,
  "\u2581asianmukaisesti": 4808,
  "\u2581Rakastan": 4809,
  "uta": 4810,
  "\u2581k\u00e4ytetty": 4811,
  "\u2581store": 4812,
  "\u2581mainly": 4813,
  "pre": 4814,
  "\u2581posti": 4815,
  "\u2581emergency": 4816,
  "\u258149": 4817,
  "\u2581suo": 4818,
  "\u2581worse": 4819,
  "\u2581phase": 4820,
  "pr": 4821,
  "\u2581voisivat": 4822,
  "\u2581toimielinten": 4823,
  "3)": 4824,
  "\u2581kantaa": 4825,
  "\u2581files": 4826,
  "\u2581exceeding": 4827,
  "42": 4828,
  "\u2581Vuoden": 4829,
  "berg": 4830,
  "\u25812014,": 4831,
  "way": 4832,
  "\u25812013,": 4833,
  "\u2581lopettaa": 4834,
  "\u2581prove": 4835,
  "\u2581link": 4836,
  "\u2581Bu": 4837,
  "ized": 4838,
  "ston": 4839,
  "\u2581rii": 4840,
  "\u2581yht\u00e4\u00e4n": 4841,
  "\u2581glass": 4842,
  "\u2581kuvaa": 4843,
  "\u2581N\u00e4hd\u00e4\u00e4n": 4844,
  "\u2581Russian": 4845,
  "hde": 4846,
  "\u2581milloin": 4847,
  "\u2581Mike": 4848,
  "\u2581vaikutusta": 4849,
  "\u2581dollaria": 4850,
  "ttaja": 4851,
  "cha": 4852,
  "\u2581damn": 4853,
  "\u2581l\u00e4hi": 4854,
  "\u2581certificate": 4855,
  "\u2581ehdottaa": 4856,
  "\u2581etsi": 4857,
  "\u2581otti": 4858,
  "\u2581y\u00f6": 4859,
  ".12": 4860,
  "\u2581poly": 4861,
  "\u2581uses": 4862,
  "\u2581lasi": 4863,
  "\u2581Cha": 4864,
  "\u2581luettelo": 4865,
  "\u2581toisessa": 4866,
  "\u2581sold": 4867,
  "\u2581multi": 4868,
  "\u2581Back": 4869,
  "\u2581paperi": 4870,
  "\u2581culture": 4871,
  "\u2581adequate": 4872,
  "voima": 4873,
  "\u2581turvallisuuden": 4874,
  "\u2581handle": 4875,
  "kit": 4876,
  "\u2581collection": 4877,
  "\u2581understanding": 4878,
  "\u2581Ranska": 4879,
  "\u2581exist": 4880,
  "oikeus": 4881,
  "\u2581kova": 4882,
  "r\u00e4": 4883,
  "\u2581Should": 4884,
  "\u2581bear": 4885,
  "\u2581hyv\u00e4lt\u00e4": 4886,
  "\u2581promoting": 4887,
  "istu": 4888,
  "\u2581receiving": 4889,
  "\u2581liittyv\u00e4n": 4890,
  "\u2581items": 4891,
  "\u2581Yhteis\u00f6n": 4892,
  "\u2581Pysy": 4893,
  "\u2581currency": 4894,
  "\u2581user": 4895,
  "\u2581peri": 4896,
  "\u2581eligible": 4897,
  "\u2581kustannukset": 4898,
  "tori": 4899,
  "56": 4900,
  "toi": 4901,
  "\u2581perustuvat": 4902,
  "\u2581riitt\u00e4v\u00e4sti": 4903,
  "\u00e5": 4904,
  "\u2581tilanteen": 4905,
  "laa": 4906,
  "\u2581Bulgaria": 4907,
  "\u2581kieli": 4908,
  "\u2581deep": 4909,
  "\u2581kuoleman": 4910,
  "alueen": 4911,
  "\u2581luona": 4912,
  "\u2581evening": 4913,
  "stro": 4914,
  "\u2581recovery": 4915,
  "\u2581waters": 4916,
  "\u2581sielu": 4917,
  "\u2581mahdollisuuden": 4918,
  "\u2581Toivottavasti": 4919,
  "\u2581Mac": 4920,
  "\u258184": 4921,
  "\u2581anybody": 4922,
  "\u2581Halusin": 4923,
  "\u2581Suite": 4924,
  "\u2581el\u00e4m\u00e4": 4925,
  "\u2581ydin": 4926,
  "\u2581Hienoa": 4927,
  "\u2581Over": 4928,
  "llisi\u00e4": 4929,
  "\u2581temperature": 4930,
  "uksessa": 4931,
  "\u2581primary": 4932,
  "sp": 4933,
  "t\u00e4v\u00e4": 4934,
  "\u2581vi": 4935,
  "tal": 4936,
  "\u2581toteaa": 4937,
  "\u2581degree": 4938,
  "\u2581kone": 4939,
  "\u2581characteristics": 4940,
  "\u2581James": 4941,
  "\u2581heat": 4942,
  "\u2581seek": 4943,
  "\u2581Milloin": 4944,
  "\u2581shares": 4945,
  "\u2581London": 4946,
  "\u2581shoot": 4947,
  "\u2581requirement": 4948,
  "\u2581kertonut": 4949,
  "\u2581viimeist\u00e4\u00e4n": 4950,
  "\u25812012,": 4951,
  "tyksen": 4952,
  "\u2581fi": 4953,
  "\u2581my\u00f6nnetty": 4954,
  "\u2581prison": 4955,
  "\u2581calculated": 4956,
  "\u2581meteo": 4957,
  "\u2581kanssani": 4958,
  "\u2581fault": 4959,
  "\u2581rikos": 4960,
  "\u2581lopussa": 4961,
  "\u2581item": 4962,
  "\u2581trans": 4963,
  "\u2581accident": 4964,
  "\u2581musta": 4965,
  "\u2581t\u00e4llaista": 4966,
  "oita": 4967,
  "\u2581UK": 4968,
  "\u2581vaihtoehto": 4969,
  "\u2581Labour": 4970,
  "\u2581train": 4971,
  "\u2581puhui": 4972,
  "\u2581s\u00e4\u00e4nn\u00f6ksi\u00e4": 4973,
  "\u2581Heid\u00e4n": 4974,
  "\u2581kansalliset": 4975,
  "2013": 4976,
  "\u2581languages": 4977,
  "\u2581weather": 4978,
  "\u2581vaikutukset": 4979,
  "pal": 4980,
  "\u2581Suomessa": 4981,
  "\u2581loved": 4982,
  "koulu": 4983,
  "tee": 4984,
  "\u2581ymp\u00e4rist\u00f6n": 4985,
  "\u2581p\u00e4\u00e4t\u00f6kseen": 4986,
  "\u2581min": 4987,
  "\u2581ilmi": 4988,
  "fo": 4989,
  "cal": 4990,
  "\u2581Chinese": 4991,
  "\u2581=": 4992,
  "\u2581KOMISSIO": 4993,
  "\u2581shut": 4994,
  "\u2581kannattaa": 4995,
  "RO": 4996,
  "\u2581mietinn\u00f6n": 4997,
  "odo": 4998,
  "\u2581miljardia": 4999,
  "MI": 5000,
  "\u2581COMMISSION": 5001,
  "\u2581l\u00e4hett\u00e4\u00e4": 5002,
  "nus": 5003,
  "\u2581Today": 5004,
  "\u2581huolta": 5005,
  "\u258151": 5006,
  "\u2581Charlie": 5007,
  "\u2581tools": 5008,
  "',": 5009,
  "ell": 5010,
  "\u2581l\u00e4\u00e4k\u00e4ri": 5011,
  "\u2581task": 5012,
  "\u2581Oy": 5013,
  "ava": 5014,
  "miselle": 5015,
  "\u2581kingdom": 5016,
  "\u258187": 5017,
  "ft": 5018,
  "pl": 5019,
  "\u2581notified": 5020,
  "\u2581enlargement": 5021,
  "\u2581mieless\u00e4": 5022,
  "\u2581church": 5023,
  "\u2581Monet": 5024,
  "\u2581Food": 5025,
  "\u2581motor": 5026,
  "\u2581Ve": 5027,
  "\u2581m\u00e4": 5028,
  "\u2581modern": 5029,
  "\u2581generally": 5030,
  "\u2581kiltti": 5031,
  "\u2581interesting": 5032,
  "\u2581kala": 5033,
  "\u2581competitive": 5034,
  "\u2581noudattaen": 5035,
  "\u2581tietokone": 5036,
  "\u2581Search": 5037,
  "\u2581lukum\u00e4\u00e4r\u00e4": 5038,
  "\u2581successful": 5039,
  "j\u00e4rjestelm\u00e4\u00e4": 5040,
  "\u2581applying": 5041,
  "\u2581osat": 5042,
  "\u2581articles": 5043,
  "\u2581kuvaus": 5044,
  "\u2581osto": 5045,
  "ful": 5046,
  "\u2581Turkey": 5047,
  "\u2581Sanoin": 5048,
  "\u2581asunto": 5049,
  "\u2581maat": 5050,
  "\u2581varo": 5051,
  "\u2581ostaa": 5052,
  "\u2581veri": 5053,
  "sista": 5054,
  "\u2581irti": 5055,
  "elt\u00e4": 5056,
  "\u2581advantage": 5057,
  "\u258146": 5058,
  "\u2581Jerusalem": 5059,
  "\u2581kehottaa": 5060,
  "\u2581vuodessa": 5061,
  "\u2581Association": 5062,
  "\u2581suuria": 5063,
  "\u2581j\u00e4\u00e4d\u00e4": 5064,
  "\u2581pitk\u00e4n": 5065,
  "\u2581loma": 5066,
  "\u2581preparation": 5067,
  "\u2581extremely": 5068,
  "esim": 5069,
  "\u2581pension": 5070,
  "\u2581Something": 5071,
  "\u2581kaunis": 5072,
  "\u2581vaivaa": 5073,
  "\u2581el\u00e4in": 5074,
  "viranomainen": 5075,
  "des": 5076,
  ".4.": 5077,
  "\u2581Mon": 5078,
  "\u2581tyytyv\u00e4inen": 5079,
  "\u2581ellei": 5080,
  "kuva": 5081,
  "\u2581factor": 5082,
  "\u2581Three": 5083,
  "\u2581News": 5084,
  "\u2581Tra": 5085,
  "\u2581teho": 5086,
  "\u2581ik\u00e4": 5087,
  "79": 5088,
  "\u2014": 5089,
  "\u2581aged": 5090,
  "\u2581option": 5091,
  "\u2581democracy": 5092,
  "led": 5093,
  "\u2581Par": 5094,
  "ude": 5095,
  "\u2581]": 5096,
  "\u2581tulevaisuudessa": 5097,
  "\u2581uskon": 5098,
  "It": 5099,
  "\u2581Got": 5100,
  "\u2581useful": 5101,
  "iseksi": 5102,
  "\u2581pitk\u00e4\u00e4n": 5103,
  "\u2581taloudellisen": 5104,
  "\u2581salli": 5105,
  "\u2581aimed": 5106,
  "\u2581entitled": 5107,
  "\u2581Esimerkiksi": 5108,
  "\u25812)": 5109,
  "\u2581marriage": 5110,
  "\u2581Tieto": 5111,
  "\u2581helped": 5112,
  "Ka": 5113,
  "TU": 5114,
  "\")": 5115,
  "\u2581customer": 5116,
  "\u2581temporary": 5117,
  "\u2581vahvistettu": 5118,
  "\u2581notification": 5119,
  "\u2581vastaavan": 5120,
  "\u2581k\u00e4yt\u00e4nn\u00f6n": 5121,
  "\u2581lady": 5122,
  "\u2581p\u00e4\u00e4oma": 5123,
  "\u2581kappale": 5124,
  "\u2581description": 5125,
  "\u2581coffee": 5126,
  "\u2581ar": 5127,
  "\u2581lopullinen": 5128,
  "\u2581v\u00e4list\u00e4": 5129,
  "\u2581um": 5130,
  "\u2581[...]": 5131,
  "\u2581station": 5132,
  "NA": 5133,
  "\u2581Kat": 5134,
  "\u2581violence": 5135,
  "\u2581Che": 5136,
  "lly": 5137,
  "\u2581asettaa": 5138,
  "\u2581improved": 5139,
  "\u2581Jumalaa": 5140,
  "\u2581treat": 5141,
  "toiminta": 5142,
  "\u2581t\u00e4rkeit\u00e4": 5143,
  "\u2581mark": 5144,
  "IM": 5145,
  "rd": 5146,
  "\u2581brain": 5147,
  "stus": 5148,
  "cy": 5149,
  "\u2581valtioiden": 5150,
  "llist\u00e4": 5151,
  "\u25812019": 5152,
  "\u2581standing": 5153,
  "\u2581ruokaa": 5154,
  "\u2581Var": 5155,
  "\u2581prejudice": 5156,
  "\u2581rakenne": 5157,
  "ida": 5158,
  "\u2581controls": 5159,
  "\u2581map": 5160,
  "can": 5161,
  "\u2581tekisi": 5162,
  "\u2581tiettyj\u00e4": 5163,
  "\u2581supporting": 5164,
  "\u2581kuningas": 5165,
  "\u2581k\u00e4rsi": 5166,
  "\u2581consequences": 5167,
  "\u2581viesti": 5168,
  "\u2581tietenkin": 5169,
  "\u2581Perus": 5170,
  "\u2581excellent": 5171,
  "\u2581unioniin": 5172,
  "\u2581appear": 5173,
  "\u2581joille": 5174,
  "\u2581Ed": 5175,
  "\u2581suori": 5176,
  "\u2581p\u00e4iv\u00e4\u00e4n": 5177,
  "\u2581teit": 5178,
  "\u2581huone": 5179,
  "\u2581agenda": 5180,
  "\u2581hotelli": 5181,
  "elta": 5182,
  "\u2581keksi": 5183,
  "\u2581sovi": 5184,
  "koon": 5185,
  "(1)": 5186,
  "\u2581Plan": 5187,
  "\u2581huomaa": 5188,
  "suunnitelman": 5189,
  "\u2581rauhan": 5190,
  "\u2581vastata": 5191,
  "67": 5192,
  "\u2581direktiiviss\u00e4": 5193,
  "referred": 5194,
  "\u2581wood": 5195,
  "\u2581linja": 5196,
  "\u2581entity": 5197,
  "\u2581Black": 5198,
  "\u2581hearing": 5199,
  "lai": 5200,
  "\u2581Uskon": 5201,
  "\u2581melkein": 5202,
  "assa": 5203,
  "uu": 5204,
  "\u2581koulutuksen": 5205,
  "\u2581puhe": 5206,
  "wi": 5207,
  "\u2581appreciate": 5208,
  "\u2581j\u00e4": 5209,
  "\u2581\u00f6ljy": 5210,
  "\u2581l\u00e4htee": 5211,
  "alalla": 5212,
  "\u2581el\u00e4m\u00e4\u00e4": 5213,
  "\u2581Ge": 5214,
  "\u2581Yli": 5215,
  "\u2581strengthen": 5216,
  "\u2581raise": 5217,
  "\u2581contained": 5218,
  "\u2581riitt\u00e4v\u00e4n": 5219,
  "\u2581raaka": 5220,
  "\u2581association": 5221,
  "\u2581sielt\u00e4": 5222,
  "\u2581Actually": 5223,
  "eta": 5224,
  "\u2581Oletteko": 5225,
  "\u2581players": 5226,
  "\u2581charges": 5227,
  "\u2581fell": 5228,
  "\u2581linked": 5229,
  "\u2581sellaisenaan": 5230,
  "\u2581delivery": 5231,
  "\u2581vuosien": 5232,
  "\u2581laki": 5233,
  "\u2581s\u00e4\u00e4nn\u00f6llisesti": 5234,
  "\u2581toimittaa": 5235,
  "ministeri": 5236,
  "\u2581Ven\u00e4j\u00e4n": 5237,
  "\u2581recognised": 5238,
  "\u2581Paavali": 5239,
  "\u2581haittaa": 5240,
  "\u2581Product": 5241,
  "\u2581da": 5242,
  "menettelyn": 5243,
  "\u2581sell": 5244,
  "\u2581perin": 5245,
  "saa": 5246,
  "EYVL": 5247,
  "neita": 5248,
  "\u2581strength": 5249,
  "\u2581Mies": 5250,
  "\u2581Tied\u00e4t": 5251,
  "viranomaisen": 5252,
  "\u2581hyv\u00e4ksytty": 5253,
  "\u2581ty\u00f6markkina": 5254,
  "\u2581paska": 5255,
  "\u2581views": 5256,
  "\u2581president": 5257,
  "\u2581koira": 5258,
  "\u2581challenge": 5259,
  "\u2581identify": 5260,
  "\u2581democratic": 5261,
  "kg": 5262,
  "\u2581comprehensive": 5263,
  "let": 5264,
  "\u2581Gra": 5265,
  "\u2581kysymykseen": 5266,
  "\u2581lupaa": 5267,
  "\u2581aivo": 5268,
  "\u2581shouldn": 5269,
  "suunnitelma": 5270,
  "\u2581promotion": 5271,
  "\u2581Raamattu": 5272,
  "\u2581tehokkaasti": 5273,
  "RA": 5274,
  "51": 5275,
  "ini": 5276,
  "\u2581Kuuntele": 5277,
  "ship": 5278,
  "\u2581liite": 5279,
  "\u2581tukee": 5280,
  "\u2581Mor": 5281,
  "\u2581differences": 5282,
  "\u2581dream": 5283,
  "aineiden": 5284,
  "\u2581nyky": 5285,
  "\u2581Star": 5286,
  "\u2581enforcement": 5287,
  "lon": 5288,
  "\u2581Niinp\u00e4": 5289,
  "\u2581Once": 5290,
  "\u2581aineiden": 5291,
  "\u2581yleisen": 5292,
  "\u2581confidence": 5293,
  "\u2581maata": 5294,
  "\u2581complex": 5295,
  "\u2581sis\u00e4lt\u00e4v\u00e4t": 5296,
  "\u2581alternative": 5297,
  "\u2581firm": 5298,
  "over": 5299,
  "toiminnan": 5300,
  "\u2581properly": 5301,
  "\u2581hoitoon": 5302,
  "\u2581koke": 5303,
  "\u2581fat": 5304,
  "gon": 5305,
  "\u2581t\u00e4ynn\u00e4": 5306,
  "\u2581Open": 5307,
  "sar": 5308,
  "OP": 5309,
  "\u2581vuosittain": 5310,
  "\u2581muoto": 5311,
  "IL": 5312,
  "\u2581tekemist\u00e4": 5313,
  "d\u00e4": 5314,
  "\u2581track": 5315,
  "\u2581Toivon": 5316,
  "\u2581options": 5317,
  "\u2581Make": 5318,
  "\u2581cells": 5319,
  "\u2581Thus": 5320,
  "res": 5321,
  "\u2581Sama": 5322,
  "\u2581testing": 5323,
  "\u2581jokaisen": 5324,
  "\u2581Kiinan": 5325,
  "\u2581maailma": 5326,
  "\u2581soul": 5327,
  "IR": 5328,
  "\u2581tavaroiden": 5329,
  "\u2581selvitt\u00e4\u00e4": 5330,
  "related": 5331,
  "\u2581till": 5332,
  "\u2581contributions": 5333,
  "ative": 5334,
  "\u2581nimen": 5335,
  "\u2581functions": 5336,
  "\u2581Mink\u00e4": 5337,
  "\u2581restructuring": 5338,
  "\u2581Communities": 5339,
  "\u2581varmistetaan": 5340,
  "komitea": 5341,
  "\u258172": 5342,
  "\u2581rural": 5343,
  "\u2581Viime": 5344,
  "\u2581varaa": 5345,
  "CC": 5346,
  "\u2581j\u00e4ljell\u00e4": 5347,
  "gar": 5348,
  "\u2581edustaja": 5349,
  "\u2581blue": 5350,
  "\u2581names": 5351,
  "\u2581voittaa": 5352,
  "\u2581drop": 5353,
  "\u2581exceed": 5354,
  "jaa": 5355,
  "\u258161": 5356,
  "\u2581levy": 5357,
  "\u2581Never": 5358,
  "\u2581adverse": 5359,
  "\u2581silm\u00e4": 5360,
  "\u2581V\u00e4": 5361,
  "\u2581middle": 5362,
  "4)": 5363,
  "laisen": 5364,
  "\u2581sweet": 5365,
  "\u00f3": 5366,
  "\u2581totally": 5367,
  "\u2581osoittavat": 5368,
  "\u2581valmista": 5369,
  "2010": 5370,
  "\u2581length": 5371,
  "\u2581lentoasema": 5372,
  "\u2581kiire": 5373,
  "\u2581n\u00e4e": 5374,
  "ttaisi": 5375,
  "ari": 5376,
  "We": 5377,
  "\u2581Mal": 5378,
  "bin": 5379,
  "\u2581heill\u00e4": 5380,
  "\u2581palvelut": 5381,
  "ac": 5382,
  "\u2581cohesion": 5383,
  "hr": 5384,
  "\u2581Voinko": 5385,
  "\u2581avata": 5386,
  "\u2581p\u00e4\u00e4t\u00f6slauselma": 5387,
  "\u2581yhteist\u00e4": 5388,
  "uri": 5389,
  "\u2581claims": 5390,
  "ytt\u00e4": 5391,
  "\u2581It\u00e4": 5392,
  "\u2581tili": 5393,
  "\u2581t\u00e4llainen": 5394,
  "\u2581est\u00e4": 5395,
  "\u2581suora": 5396,
  "yys": 5397,
  "\u2581delivered": 5398,
  "\u2581religious": 5399,
  "\u2581Luxembourg": 5400,
  "\u2581asiantuntija": 5401,
  "\u2581entities": 5402,
  "ttaessa": 5403,
  "\u2581Netherlands": 5404,
  "\u2581auton": 5405,
  "\u2581yhteys": 5406,
  "\u2581menossa": 5407,
  "\u2581caught": 5408,
  "\u2581jokainen": 5409,
  "\u00ed": 5410,
  "General": 5411,
  "\u2581suojaa": 5412,
  "\u2581Ehdotus": 5413,
  "\u2581Swedish": 5414,
  "zo": 5415,
  "\u2581twice": 5416,
  "\u2581ik\u00e4\u00e4n": 5417,
  "\u2581tarkoitettua": 5418,
  "ojen": 5419,
  "\u2581aihe": 5420,
  "76": 5421,
  "ture": 5422,
  "hd": 5423,
  "\u2581syist\u00e4": 5424,
  "63": 5425,
  "old": 5426,
  "\u2581Ensimm\u00e4inen": 5427,
  "non": 5428,
  "\u2581ver": 5429,
  "\u2581maailmaa": 5430,
  "nny": 5431,
  "\u2581functioning": 5432,
  "\u2581kaikkialla": 5433,
  "\u2581partnership": 5434,
  "\u2581engine": 5435,
  "\u2581processes": 5436,
  "\u25812015/": 5437,
  "j\u00e4\u00e4": 5438,
  "\u2581Rights": 5439,
  "\u2581miehet": 5440,
  "\u2581antamaan": 5441,
  "\u2581registration": 5442,
  "\u2581haluamme": 5443,
  "\u2581experts": 5444,
  "\u2581moottori": 5445,
  "\u2581er\u00e4\u00e4n": 5446,
  "\u2581viimeinen": 5447,
  "\u2581Lissabonin": 5448,
  "\u2581valinta": 5449,
  "\u00c8": 5450,
  "\u2581Adam": 5451,
  "\u2581iho": 5452,
  "\u2581agent": 5453,
  "\u2581closely": 5454,
  "\u2581kest\u00e4v\u00e4n": 5455,
  "\u2581riippumatta": 5456,
  "\u2581tohtori": 5457,
  "\u2581asioista": 5458,
  "\u2581Life": 5459,
  "\u2581Call": 5460,
  "\u2581pull": 5461,
  "\u2581Word": 5462,
  "toimia": 5463,
  "\u2581Pan": 5464,
  "\u2581green": 5465,
  "\u2581muissa": 5466,
  "\u2581evil": 5467,
  "happo": 5468,
  "htaa": 5469,
  "\u2581kattaa": 5470,
  "\u2581saamme": 5471,
  "\u2581paragraphs": 5472,
  "\u2581flight": 5473,
  "\u2581naisen": 5474,
  "\u2581SA": 5475,
  "uma": 5476,
  "\u2581Joe": 5477,
  "\u2581merkille": 5478,
  "\u2581ovi": 5479,
  "\u2581Com": 5480,
  "\u2581tulo": 5481,
  "\u2581selitt\u00e4\u00e4": 5482,
  "\u2581Sta": 5483,
  "\u25812011,": 5484,
  "\u2581iloinen": 5485,
  "\u2581parasta": 5486,
  "\u2581aims": 5487,
  "\u2581governments": 5488,
  "\u25813,": 5489,
  "\u2581rahat": 5490,
  "LO": 5491,
  "\u2581korva": 5492,
  "row": 5493,
  "9.": 5494,
  "\u2581honey": 5495,
  "\u2581t\u00e4yt\u00e4nt\u00f6\u00f6npanoa": 5496,
  "\u2581commitments": 5497,
  "\u2581todetaan": 5498,
  "\u2581j\u00e4senvaltioita": 5499,
  "\u2581viikkoa": 5500,
  "\u2581huoli": 5501,
  "\u2581Stay": 5502,
  "\u2581pelk\u00e4\u00e4": 5503,
  "lis": 5504,
  "\u2581Parties": 5505,
  "\u2581koskevaan": 5506,
  "\u2581confirmed": 5507,
  "\u2581effectively": 5508,
  "\u2581Art": 5509,
  "l\u00f6": 5510,
  "\u2581tulevan": 5511,
  "\u2581hyv\u00e4ksynyt": 5512,
  "nes": 5513,
  "\u2581vakava": 5514,
  "yyli": 5515,
  "\u2581sp": 5516,
  "\u2581viranomaisen": 5517,
  "\u2581k\u00e4ytt\u00e4j\u00e4": 5518,
  "\u2581cancer": 5519,
  "\u2581seuraava": 5520,
  "\u2581kasvaa": 5521,
  "\u2581sanan": 5522,
  "\u2581Paper": 5523,
  "\u2581presidentti": 5524,
  "\u2581keskustella": 5525,
  "\u2581summer": 5526,
  "UR": 5527,
  "\u2581compensation": 5528,
  "\u2581vuoro": 5529,
  "sk": 5530,
  "m\u00e4tt\u00e4": 5531,
  "\u2581Gar": 5532,
  "\u2581jne": 5533,
  "\u25814:": 5534,
  "\u2581helping": 5535,
  "\u2581J\u00e4": 5536,
  "\u2581View": 5537,
  "\u2581vaikuttavat": 5538,
  "\u2581liittyv\u00e4": 5539,
  "lip": 5540,
  "\u2581liittyvist\u00e4": 5541,
  "\u2581keeping": 5542,
  "\u2581carrying": 5543,
  "\u2581l\u00e4hti": 5544,
  "ping": 5545,
  "\u2581seurauksena": 5546,
  "\u2581planned": 5547,
  "\u2581Mielest\u00e4ni": 5548,
  "\u2581hinnat": 5549,
  "61": 5550,
  "\u2581huippu": 5551,
  "\u2581n\u00e4ihin": 5552,
  "\u2581individuals": 5553,
  "\u25811/": 5554,
  "\u2581Save": 5555,
  "\u2581tasapaino": 5556,
  "\u2581dark": 5557,
  "\u2581puhut": 5558,
  "\u2581tien": 5559,
  "\u258153": 5560,
  "\u2581tuoda": 5561,
  "\u2581palata": 5562,
  "laista": 5563,
  "\u2581putting": 5564,
  "\u2581century": 5565,
  "\u2581Nordic": 5566,
  "\u2581pinta": 5567,
  "\u2581funny": 5568,
  "\u2581vuokra": 5569,
  "viitattu": 5570,
  "\u2581tuottaa": 5571,
  "\u2581kor": 5572,
  "\u2581loans": 5573,
  "\u2581Next": 5574,
  "kat": 5575,
  "kunnan": 5576,
  "\u2581aikav\u00e4lin": 5577,
  "\u2581budjetti": 5578,
  "\u2581Yleis": 5579,
  "\u2581India": 5580,
  "\u2581teist\u00e4": 5581,
  "\u2581transmission": 5582,
  "\u2581vuosia": 5583,
  "europa": 5584,
  "\u2581osta": 5585,
  "\u2581occur": 5586,
  "To": 5587,
  "\u2581t\u00e4ydellinen": 5588,
  "\u2581lay": 5589,
  "\u2581fellow": 5590,
  "\u2581tiedonanto": 5591,
  "\u2581mention": 5592,
  "\u2581miljoonan": 5593,
  "\u2581tapaa": 5594,
  "\u2581poistaa": 5595,
  "\u2581noudatettava": 5596,
  "car": 5597,
  "\u2581Vuosi": 5598,
  "\u2581Poland": 5599,
  "ossa": 5600,
  "\u2581ilmoitettu": 5601,
  "lleni": 5602,
  "\u2581l\u00e4ht\u00f6": 5603,
  "\u2581oral": 5604,
  "\u2581sanon": 5605,
  "\u2581ihmist\u00e4": 5606,
  "\u2581koodi": 5607,
  "\u2581weird": 5608,
  "\u2581julkaistaan": 5609,
  "\u2581fix": 5610,
  "\u2581nu": 5611,
  "\u2581kansa": 5612,
  "\u2581gold": 5613,
  "\u2581performed": 5614,
  "\u2581spread": 5615,
  "\u2581noudattaa": 5616,
  "tiedoston": 5617,
  "\u2581seat": 5618,
  "CA": 5619,
  "\u2581FI": 5620,
  "ef": 5621,
  "\u2581pure": 5622,
  "\u2581wear": 5623,
  "\u2581improvement": 5624,
  "\u2581huge": 5625,
  "\u25812015,": 5626,
  "\u2581illegal": 5627,
  "\u2581nations": 5628,
  "\u2581scared": 5629,
  "\u2581250": 5630,
  "\u2581careful": 5631,
  "ttavat": 5632,
  "\u2581respond": 5633,
  "\u2581luck": 5634,
  "asia": 5635,
  "hoidon": 5636,
  "isuutta": 5637,
  "\u2581Public": 5638,
  "\u2581tuonnin": 5639,
  "\u2581wall": 5640,
  "\u2581indicate": 5641,
  "\u2581sinuun": 5642,
  "\u2581existence": 5643,
  "!\"": 5644,
  "\u2581closer": 5645,
  "\u2581involving": 5646,
  "\u2581wonderful": 5647,
  "valla": 5648,
  "\u2581brothers": 5649,
  "ab": 5650,
  "\u2581checks": 5651,
  "\u2581trading": 5652,
  "2008": 5653,
  "ika": 5654,
  "\u2581miesten": 5655,
  "\u2581v\u00e4ltt\u00e4m\u00e4t\u00f6nt\u00e4": 5656,
  "ett\u00e4": 5657,
  "\u2581wonder": 5658,
  "\u2581taloudellista": 5659,
  "\u2581tunnus": 5660,
  "nneet": 5661,
  "alueella": 5662,
  "\u2581goal": 5663,
  "\u2581kehitt\u00e4minen": 5664,
  "\u2581speaking": 5665,
  "\u2581ulkopuolelle": 5666,
  "\u2581somewhere": 5667,
  "\u2581merkki": 5668,
  "://": 5669,
  "ub": 5670,
  "\u2581lopulta": 5671,
  "\u2581Bi": 5672,
  "\u2581myy": 5673,
  "\u2581Framework": 5674,
  "DA": 5675,
  "\u2581allows": 5676,
  "\u2581mechanism": 5677,
  "\u2581controlled": 5678,
  "\u2581yst\u00e4vi\u00e4": 5679,
  "\u2581Services": 5680,
  "\u2581osoitettu": 5681,
  "88": 5682,
  "maiden": 5683,
  "\u258154": 5684,
  "\u2581mutual": 5685,
  "\u2581scale": 5686,
  "\u2581luvan": 5687,
  "\u2581Eri": 5688,
  "\u2581strategic": 5689,
  "\u2581turvallisuutta": 5690,
  "\u258159": 5691,
  "\u2581alussa": 5692,
  "\u2581examination": 5693,
  "\u2581CD": 5694,
  "\u2581grounds": 5695,
  "\u2581passed": 5696,
  "\u2581oikeasti": 5697,
  "\u2581p\u00e4\u00e4si": 5698,
  "\u2581tuloksia": 5699,
  "\u2581prevention": 5700,
  "\u2581tarkoitettuja": 5701,
  "\u2581kuule": 5702,
  "\u2581reasonable": 5703,
  "\u2581maaseudun": 5704,
  "\u25810,": 5705,
  "54": 5706,
  "\u2581accordingly": 5707,
  "\u2581kau": 5708,
  "2-": 5709,
  "huone": 5710,
  "uuteen": 5711,
  "\u2581Greek": 5712,
  "\u2581henkil\u00f6n": 5713,
  "\u2581vaihto": 5714,
  "\u2581min\u00e4kin": 5715,
  "ola": 5716,
  "\u2581USE": 5717,
  "\u2581Je": 5718,
  "ST": 5719,
  "\u2581y\u00f6t\u00e4": 5720,
  "\u2581Captain": 5721,
  "\u2581osana": 5722,
  "\u2581jotkut": 5723,
  "\u2581ominaisuudet": 5724,
  "\u2581arvioida": 5725,
  "\u2581duration": 5726,
  "\u2581producer": 5727,
  "\u258164": 5728,
  "\u2581maasta": 5729,
  "\u2581Ajattelin": 5730,
  "\u2581luota": 5731,
  "\u2581tekij\u00e4": 5732,
  "\u2581k\u00e4ynyt": 5733,
  "\u2581Employment": 5734,
  "tieto": 5735,
  "\u2581Another": 5736,
  "\u2581difficulties": 5737,
  "\u2581Luulen": 5738,
  "gra": 5739,
  "\u2581Conference": 5740,
  "\u2581street": 5741,
  "\u2581029": 5742,
  "\u2581alfa": 5743,
  "\u2581situations": 5744,
  "\u2581mur": 5745,
  "\u2581none": 5746,
  "\u2581significantly": 5747,
  "\u2581Nations": 5748,
  "\u2581kutsu": 5749,
  "\u2581samanaikaisesti": 5750,
  "\u2581easily": 5751,
  "\u2581sight": 5752,
  "sol": 5753,
  "\u2581Functioning": 5754,
  "\u2581hy\u00f6ty": 5755,
  "\u2581ride": 5756,
  "\u2581periods": 5757,
  "FI": 5758,
  "\u2581tulos": 5759,
  "\u2581merkitys": 5760,
  "\u2581tutkimuksessa": 5761,
  "\u2581Spanish": 5762,
  "\u2581participate": 5763,
  "ap": 5764,
  "\u2581551": 5765,
  "\u2581todellakin": 5766,
  "OR": 5767,
  "\u2581Trade": 5768,
  "ure": 5769,
  "\u2581soi": 5770,
  "\u2581valvonnan": 5771,
  "ep": 5772,
  "telu": 5773,
  "\u2581Christmas": 5774,
  "16].": 5775,
  "\u2581apartment": 5776,
  "\u2581creating": 5777,
  "\u2581tarkoitat": 5778,
  "\u2581julkis": 5779,
  "\u2581l\u00e4": 5780,
  "tuksesta": 5781,
  "OT": 5782,
  "\u2581hau": 5783,
  "\u2581protected": 5784,
  "\u2581tehtiin": 5785,
  "\u2581katsoi": 5786,
  "\u2581sosiaalikomitea": 5787,
  "\u2581targets": 5788,
  "mark": 5789,
  "\u2581vital": 5790,
  "\u2581apu": 5791,
  "ruu": 5792,
  "\u2581Regulations": 5793,
  "ksesta": 5794,
  "\u2581chemical": 5795,
  "tetut": 5796,
  "par": 5797,
  "\u2581seuraavia": 5798,
  "\u2581instance": 5799,
  "\u2581luotto": 5800,
  "\u258166": 5801,
  "isuuden": 5802,
  "\u2581adjustment": 5803,
  "teita": 5804,
  "\u2581Mer": 5805,
  "\u2581aircraft": 5806,
  "\u2581kuuluvien": 5807,
  "\u2581GDP": 5808,
  "\u2581yleinen": 5809,
  "\u2581dance": 5810,
  "IC": 5811,
  "\u2581para": 5812,
  "\u2581sopimukseen": 5813,
  "\u2581johdosta": 5814,
  "au": 5815,
  "\u2581wind": 5816,
  "\u258186": 5817,
  "\u2581p\u00e4\u00e4tti": 5818,
  "\u2581absence": 5819,
  "\u2581keho": 5820,
  "\u2581Name": 5821,
  "\u2581ministeri": 5822,
  "\u2581sounds": 5823,
  "\u25812006.": 5824,
  "\u2581mukaista": 5825,
  "lje": 5826,
  "\u2581concentration": 5827,
  "\u2581metal": 5828,
  "\u2581mitta": 5829,
  "\u2581muutama": 5830,
  "\u2581avain": 5831,
  "\u2581heaven": 5832,
  "\u2581rajat": 5833,
  "\u2581mik\u00e4li": 5834,
  "\u2581Usko": 5835,
  "\u2581toimenpiteist\u00e4": 5836,
  "kel": 5837,
  "\u2581k\u00e4sitell\u00e4": 5838,
  "\u2581toteut": 5839,
  "end": 5840,
  "\u2581h\u00e4neen": 5841,
  "\u2581k\u00e4ytt\u00e4v\u00e4t": 5842,
  "\u2581Minua": 5843,
  "yhteiskunnan": 5844,
  "\u2581learned": 5845,
  "\u2581failed": 5846,
  "\u2581consistent": 5847,
  "\u2581kylm\u00e4": 5848,
  "ier": 5849,
  "\u2581uudestaan": 5850,
  "Amerikka": 5851,
  "\u2581pit\u00e4v\u00e4t": 5852,
  "\u2581victims": 5853,
  "\u2581etteiv\u00e4t": 5854,
  "\u2581extended": 5855,
  "\u2581bringing": 5856,
  "\u2581FBI": 5857,
  "\u2581Ms": 5858,
  "\u2581helppo": 5859,
  "\u2581toimisto": 5860,
  "\u00d6": 5861,
  "teja": 5862,
  "\u2581h\u00e4t\u00e4\u00e4": 5863,
  "\u2581kohdalla": 5864,
  "\u2581assess": 5865,
  "\u2581aikaisemmin": 5866,
  "`": 5867,
  "\u2581ehtoja": 5868,
  "\u2581Fo": 5869,
  "\u2581sosiaalisen": 5870,
  "\u2581older": 5871,
  "elintarvikkeiden": 5872,
  "\u2581analyysi": 5873,
  "\u2581fund": 5874,
  "\u2581kasva": 5875,
  "\u2581sopii": 5876,
  "ther": 5877,
  "maksu": 5878,
  "\u2581sets": 5879,
  "\u2581image": 5880,
  "\u2581broken": 5881,
  "\u2581grow": 5882,
  "\u258115-74": 5883,
  "\u258196": 5884,
  "kausi": 5885,
  "\u2581pala": 5886,
  "v\u00e4\u00e4": 5887,
  "\u2581Weather": 5888,
  "\u2581ky": 5889,
  "\u2581luulet": 5890,
  "ope": 5891,
  "1996": 5892,
  "\u2581mietint\u00f6": 5893,
  "VA": 5894,
  "ale": 5895,
  "\u2581profit": 5896,
  "\u2581estimated": 5897,
  "\u2581puna": 5898,
  "\u2581families": 5899,
  "tre": 5900,
  "\u2581hundred": 5901,
  "53": 5902,
  "itu": 5903,
  "\u2581agents": 5904,
  "ensa": 5905,
  "\u2581strategia": 5906,
  "uden": 5907,
  "sissa": 5908,
  "\u2581korvaa": 5909,
  "\u2581oikeuksia": 5910,
  "\u2581reducing": 5911,
  "\u258162": 5912,
  "\u2581muutaman": 5913,
  "ansa": 5914,
  "\u2581varsinkin": 5915,
  "\u2581secure": 5916,
  "\u2581orders": 5917,
  "menettely": 5918,
  "\u2581plus": 5919,
  "\u25812010,": 5920,
  "ttelu": 5921,
  "uksissa": 5922,
  "\u2581Safety": 5923,
  "\u2581600": 5924,
  "ator": 5925,
  "\u2581conducted": 5926,
  "\u2581s\u00e4\u00e4nn\u00f6ist\u00e4": 5927,
  "83": 5928,
  "luo": 5929,
  "nee": 5930,
  "\u2581IP": 5931,
  "\u2581Law": 5932,
  "\u2581Pyyd\u00e4n": 5933,
  "\u2581120": 5934,
  "\u2581books": 5935,
  "\u258193": 5936,
  "\u2581indicators": 5937,
  "\u2581arvon": 5938,
  "\u258199": 5939,
  "\u2581Last": 5940,
  "\u2581palkka": 5941,
  "La": 5942,
  "laitteet": 5943,
  "\u2581rahoituksen": 5944,
  "ok": 5945,
  "[": 5946,
  "\u25812005.": 5947,
  "\u2581LORD": 5948,
  "\u2581quantities": 5949,
  "\u2581uhri": 5950,
  "\u2581mikro": 5951,
  "\u2581k\u00e4ytt\u00e4en": 5952,
  "\u2581tuntee": 5953,
  "\u2581Alex": 5954,
  "\u2581congregation": 5955,
  "\u2581devices": 5956,
  "\u2581n\u00e4k\u00f6": 5957,
  "\u2581concept": 5958,
  "\u2581Bur": 5959,
  "iz": 5960,
  "\u2581rich": 5961,
  "\u2581v\u00e4lityksell\u00e4": 5962,
  "\u2581count": 5963,
  "\u2581osassa": 5964,
  "\u2581Robert": 5965,
  "\u2581lahja": 5966,
  "\u2581syd\u00e4n": 5967,
  "\u2581British": 5968,
  "\u2581tutkia": 5969,
  "EUR": 5970,
  "\u2581Martin": 5971,
  "\u2581EFTA": 5972,
  "\u2581Tulkaa": 5973,
  "\u2581saivat": 5974,
  "\u2581mistake": 5975,
  "\u2581ajoneuvo": 5976,
  "\u2581tuottaja": 5977,
  "silla": 5978,
  "\u2581quick": 5979,
  "\u2581monetary": 5980,
  "\u2581maatalouden": 5981,
  "\u2581raportoi": 5982,
  "\u2581kohde": 5983,
  "\u2581identification": 5984,
  "log": 5985,
  "\u258188": 5986,
  "\u2581aiheesta": 5987,
  "\u2581seura": 5988,
  "Niin": 5989,
  "\u25812007.": 5990,
  "\u2581Watch": 5991,
  "\u2581soveltamisalaan": 5992,
  "\u2581administered": 5993,
  "\u2581VII": 5994,
  "\u2581thinks": 5995,
  "\u2581effectiveness": 5996,
  "\u2581residence": 5997,
  "\u2581omat": 5998,
  "\u2581havaittu": 5999,
  "\u2581delay": 6000,
  "elli": 6001,
  "\u2581prepare": 6002,
  "\u2581s\u00e4\u00e4detyt": 6003,
  "\u2581kyseinen": 6004,
  "\u2581n\u00e4yt\u00e4": 6005,
  "\u2581intervention": 6006,
  "\u2581Area": 6007,
  "\u2581stopped": 6008,
  "\u2581har": 6009,
  "\u2581jolle": 6010,
  "\u2581Luuletko": 6011,
  "\u2581neuvoa": 6012,
  "57": 6013,
  "hdy": 6014,
  "\u2581VAT": 6015,
  "\u2581conformity": 6016,
  "\u2581urheilu": 6017,
  "\u2581tulen": 6018,
  "\u2581suosi": 6019,
  "\u2581reality": 6020,
  "\u2581Tuote": 6021,
  "\u2581suunnitelma": 6022,
  "\u2581yrityksille": 6023,
  "\u2581weren": 6024,
  "\u2581positions": 6025,
  "\u2581luvun": 6026,
  "\u2581j\u00e4i": 6027,
  "\u2581features": 6028,
  "\u2581Oma": 6029,
  "oikeuden": 6030,
  "\u2581Without": 6031,
  "dit": 6032,
  "\u2581ideas": 6033,
  "\u2581m\u00e4\u00e4ritell\u00e4\u00e4n": 6034,
  "\u2581siviili": 6035,
  "\u2581varoja": 6036,
  "\u2581rautatie": 6037,
  "puu": 6038,
  "\u2581output": 6039,
  "\u2581Ymm\u00e4rr\u00e4n": 6040,
  "but": 6041,
  "\u2581valid": 6042,
  "\u258102": 6043,
  "\u2581sain": 6044,
  "\u2581thousand": 6045,
  "tajien": 6046,
  "\u2581voted": 6047,
  "\u2581haluaisi": 6048,
  "\u2581iltana": 6049,
  "johtaja": 6050,
  "\u2581p\u00e4\u00e4t\u00f6ksess\u00e4": 6051,
  "\u2581hetken": 6052,
  "\u2581ottamaan": 6053,
  "\u2581tender": 6054,
  "\u2581dry": 6055,
  "\u2581koskeviin": 6056,
  "\u2581t\u00e4llaisen": 6057,
  "\u2581ilmoit": 6058,
  "(3)": 6059,
  "\u2581ennakko": 6060,
  "\u2581highest": 6061,
  "\u2581CYP": 6062,
  "\u2581kahdeksan": 6063,
  "\u2581kansainv\u00e4listen": 6064,
  "roni": 6065,
  "sch": 6066,
  "\u2581Teen": 6067,
  "\u2581Park": 6068,
  "\u2581element": 6069,
  "\u2581Remember": 6070,
  "\u2581n\u00e4hden": 6071,
  "\u2581nelj\u00e4n": 6072,
  "\u2581monitor": 6073,
  "\u2581Proposal": 6074,
  "\u2581Also": 6075,
  "-3": 6076,
  "\u2581korko": 6077,
  "\u2581originating": 6078,
  "\u2581tied\u00e4mme": 6079,
  "\u2581yesterday": 6080,
  "\u2581port": 6081,
  "lista": 6082,
  "\u2581Puhu": 6083,
  "\u258158": 6084,
  "\u2581farmers": 6085,
  "\u2581surveillance": 6086,
  "\u2581Menen": 6087,
  "\u2581virallinen": 6088,
  "\u2581p\u00e4\u00e4oman": 6089,
  "pp": 6090,
  "\u2581Case": 6091,
  "\u2581throw": 6092,
  "\u2581window": 6093,
  "\u2581ehdotuksia": 6094,
  "\u2581DNA": 6095,
  "\u2581puolestaan": 6096,
  "alle": 6097,
  "\u2581kohden": 6098,
  "\u2581Ray": 6099,
  "\u2581hedelm\u00e4": 6100,
  "\u2581esittelij\u00e4": 6101,
  "\u2581Kolme": 6102,
  "\u2581obtain": 6103,
  "\u2581Bill": 6104,
  "burg": 6105,
  "\u2581metalli": 6106,
  "\u2581selected": 6107,
  "TI": 6108,
  "\u2581lying": 6109,
  "\u25812008.": 6110,
  "\u2581Their": 6111,
  "\u2581cities": 6112,
  "\u2581lainkaan": 6113,
  "\u2581tilannetta": 6114,
  "\u2581kuuntele": 6115,
  "\u2581poverty": 6116,
  "\u2581combined": 6117,
  "tetty": 6118,
  "\u2581popular": 6119,
  "\u2581invited": 6120,
  "\u2581kuluttajien": 6121,
  "\u2581homma": 6122,
  "eja": 6123,
  "\u2581dealing": 6124,
  "\u2581specifically": 6125,
  "\u2581Perhaps": 6126,
  "\u2581viittaa": 6127,
  "you": 6128,
  "making": 6129,
  "\u2581easier": 6130,
  "\u2581namely": 6131,
  "\u2581Unionin": 6132,
  "\u2581p\u00e4\u00e4sy": 6133,
  "vuotias": 6134,
  "\u2581signs": 6135,
  "Pa": 6136,
  "\u2581(3)": 6137,
  "\u2581Business": 6138,
  "turvallisuus": 6139,
  "\u2581olevansa": 6140,
  "IV": 6141,
  "\u2581Shut": 6142,
  "vaatimukset": 6143,
  "\u2581seriously": 6144,
  "\u2581arms": 6145,
  "\u03bc": 6146,
  "73": 6147,
  "\u2581Mm": 6148,
  "\u2581managed": 6149,
  "\u2581tajua": 6150,
  "\u2581totuuden": 6151,
  "\u25812009,": 6152,
  "\u2581kest\u00e4v\u00e4": 6153,
  "\u2581suorittaa": 6154,
  "\u2581pani": 6155,
  "\u2581Portugal": 6156,
  "\u2581digital": 6157,
  "\u2581tietyn": 6158,
  "\u2581register": 6159,
  "\u2581j\u00e4rjest\u00e4": 6160,
  "\u2581Whatever": 6161,
  "free": 6162,
  "\u2581entirety": 6163,
  "\u2581johdanto": 6164,
  "\u2581played": 6165,
  "\u2581Anti": 6166,
  "\u2581oppi": 6167,
  "\u2581agriculture": 6168,
  "\u2581Online": 6169,
  "t\u00f6n": 6170,
  "\u2581luottaa": 6171,
  "\u2581traditional": 6172,
  "\u2581t\u00e4ytt\u00e4": 6173,
  "\u2581suitable": 6174,
  "\u2581seurata": 6175,
  "\u2581recorded": 6176,
  "\u2581weapons": 6177,
  "bra": 6178,
  "\u2581impossible": 6179,
  "vuuden": 6180,
  "\u2581hang": 6181,
  "\u2581conference": 6182,
  "52": 6183,
  "\u25811.2": 6184,
  "\u2581minulta": 6185,
  "\u2581organised": 6186,
  "m\u00e4st\u00e4": 6187,
  "\u2581web": 6188,
  "\u2581innovaatio": 6189,
  "\u2581agencies": 6190,
  "\u2581burden": 6191,
  "\u2581tosiaan": 6192,
  "\u2581hiili": 6193,
  "\u2581dear": 6194,
  "laitosten": 6195,
  "\u2581kuningaskunnan": 6196,
  "\u2581copy": 6197,
  "\u2581kirjaa": 6198,
  "86": 6199,
  "\u2581pystyy": 6200,
  "\u2581uhka": 6201,
  "\u2581trip": 6202,
  "\u2581Iso": 6203,
  "\u2581viikolla": 6204,
  "\u2581auki": 6205,
  "\u2581ice": 6206,
  "\u2581bi": 6207,
  "\u2581yhteiskunnallis": 6208,
  "\u2581finish": 6209,
  "\u2581appears": 6210,
  "\u2581menet": 6211,
  "\u2581talked": 6212,
  "paikan": 6213,
  "\u258189": 6214,
  "\u2581ura": 6215,
  "\u2581nuorten": 6216,
  "\u2581flow": 6217,
  "\u2581televisio": 6218,
  "\u2581forces": 6219,
  "\u2581Yrit\u00e4n": 6220,
  "\u2581rock": 6221,
  "\u2581ajo": 6222,
  "\u2581hei": 6223,
  "\u2581investointi": 6224,
  "\u2581teaching": 6225,
  "\u2581nobody": 6226,
  "\u2581IU": 6227,
  "\u2581absolutely": 6228,
  "kor": 6229,
  "ice": 6230,
  "\u2581suojelu": 6231,
  "\u2581s\u00e4\u00e4nn\u00f6kset": 6232,
  "\u25812010.": 6233,
  "\u2581V\u00e4li": 6234,
  "\u2581sal": 6235,
  "\u2581pid\u00e4n": 6236,
  "\u2581teollisuuden": 6237,
  "\u2581foot": 6238,
  "\u2581kuolema": 6239,
  "ml": 6240,
  "\u2581kirjoitti": 6241,
  "mahdollisuuksien": 6242,
  "\u2581smart": 6243,
  "\u2581advance": 6244,
  "\u2581Sal": 6245,
  "\u2581deliver": 6246,
  "\u2581henkil\u00f6kohtaise": 6247,
  "pitoisuus": 6248,
  "ros": 6249,
  "\u2581puh": 6250,
  "\u2581Joskus": 6251,
  "72": 6252,
  "AM": 6253,
  "\u2581Date": 6254,
  "\u2581saved": 6255,
  "\u2581permanent": 6256,
  "\u2581pid\u00e4t": 6257,
  "\u2581J\u00e4\u00e4": 6258,
  "\u2581bought": 6259,
  "\u2581talousarvion": 6260,
  "\u2581korjata": 6261,
  "soi": 6262,
  "\u2581seconds": 6263,
  "ud": 6264,
  "\u2581taikka": 6265,
  "TOL": 6266,
  "k\u00e4sittely": 6267,
  "\u2581v\u00e4line": 6268,
  "\u2581Belgian": 6269,
  "\u2581oven": 6270,
  "\u2581falling": 6271,
  "\u2581Za": 6272,
  "\u2581du": 6273,
  "\u2581k\u00e4": 6274,
  "\u2581vil": 6275,
  "malli": 6276,
  "\u2581Up": 6277,
  "asioiden": 6278,
  "\u2581Tapa": 6279,
  "\u25811000": 6280,
  "oh": 6281,
  "\u2581kehitt\u00e4mist\u00e4": 6282,
  "\u2581murha": 6283,
  "\u25812009.": 6284,
  "\u2581trial": 6285,
  "pit": 6286,
  "\u2581anywhere": 6287,
  "\u2581Kyse": 6288,
  "\u2581pyynn\u00f6st\u00e4": 6289,
  "\u2581elossa": 6290,
  "\u2581pregnant": 6291,
  "\u2581figures": 6292,
  "tuo": 6293,
  "\u2581selvi": 6294,
  "\u2581ihmisille": 6295,
  "\u2581eniten": 6296,
  "\u2581lived": 6297,
  "ettava": 6298,
  "\u2581t\u00e4lle": 6299,
  "\u2581normaali": 6300,
  "tes": 6301,
  "\u2581palveluja": 6302,
  "\u2581asiakas": 6303,
  "\u2581Rules": 6304,
  "\u2581mechanisms": 6305,
  "\u2581Bro": 6306,
  "asema": 6307,
  "\u2581Kan": 6308,
  "\u2581hoitoa": 6309,
  "\u2581kysy": 6310,
  "\u2581capable": 6311,
  "\u2581discussed": 6312,
  "\u2581represent": 6313,
  "\u2581plasma": 6314,
  "\u2581heavy": 6315,
  "\u2581perform": 6316,
  "kiin": 6317,
  "iitti": 6318,
  "\u2581l\u00f6ytyy": 6319,
  "\u2581express": 6320,
  "\u2581p\u00e4in": 6321,
  "\u2581v\u00e4li\u00e4": 6322,
  "ellinen": 6323,
  "\u2581sample": 6324,
  "\u2581bag": 6325,
  "toimet": 6326,
  "\u2581forever": 6327,
  "\u2581kuiva": 6328,
  "\u2581kesto": 6329,
  "\u2581alkuper\u00e4": 6330,
  "\u258182": 6331,
  "\u2581puolustus": 6332,
  "\u2581todellinen": 6333,
  "sty": 6334,
  "isivat": 6335,
  "\u2581structures": 6336,
  "oni": 6337,
  "\u2581m\u00e4\u00e4ritelty": 6338,
  "\u2581itse\u00e4\u00e4n": 6339,
  "\u2581valmistettu": 6340,
  "\u2581Nor": 6341,
  "idi": 6342,
  "\u2581beat": 6343,
  "virasto": 6344,
  "\u2581sanoit": 6345,
  "\u2581covering": 6346,
  "\u2581tool": 6347,
  "\u2581toisaalta": 6348,
  "\u2581siirtym\u00e4": 6349,
  "\u258181": 6350,
  "\u2581omista": 6351,
  "\u2581seuraavista": 6352,
  "\u2581broad": 6353,
  "\u2581johto": 6354,
  "imen": 6355,
  "\u2581Booking": 6356,
  "\u2581vaara": 6357,
  "\u2581generation": 6358,
  "\u2581properties": 6359,
  "Ja": 6360,
  "\u2581forest": 6361,
  "\u2581Hal": 6362,
  "iti": 6363,
  "\u2581tavoitteita": 6364,
  "sha": 6365,
  "\u2581Number": 6366,
  "luku": 6367,
  "hinta": 6368,
  "2004": 6369,
  "\u2581cars": 6370,
  "\u258157": 6371,
  "\u2581tanssi": 6372,
  "ss": 6373,
  "poli": 6374,
  "\u2581Italia": 6375,
  "\u2581distance": 6376,
  "\u2581Austria": 6377,
  "\u2581outcome": 6378,
  "\u2581detail": 6379,
  "\u2581proof": 6380,
  "\u2581sovelleta": 6381,
  "\u2581Ky": 6382,
  "\u2581er\u00e4s": 6383,
  "\u258176": 6384,
  "\u2581suuntaan": 6385,
  "\u2581Olit": 6386,
  "\u2581sexual": 6387,
  "\u2581kaikesta": 6388,
  "\u2581viite": 6389,
  "Mi": 6390,
  "\u2581watching": 6391,
  "\u2581revenue": 6392,
  "\u2581kilpailun": 6393,
  "tett\u00e4v\u00e4": 6394,
  "\u2581homo": 6395,
  "\u2581conflict": 6396,
  "\u2581amazing": 6397,
  "\u2581killing": 6398,
  "MA": 6399,
  "\u2581lasta": 6400,
  "\u2581mobility": 6401,
  "\u2581Tar": 6402,
  "\u2581requests": 6403,
  "\u2581suur": 6404,
  "PT": 6405,
  "\u2581mahdollisuutta": 6406,
  "\u2581Denmark": 6407,
  "\u2581vision": 6408,
  "\u2581suostu": 6409,
  "\u2581is\u00e4ni": 6410,
  "\u2581sites": 6411,
  "\u2581luu": 6412,
  "p\u00e4in": 6413,
  "\u2581slow": 6414,
  "\u2581subjects": 6415,
  "\u2581alueelle": 6416,
  "\u2581shared": 6417,
  "\u25815:": 6418,
  "\u2581kunnia": 6419,
  "\u2581Kon": 6420,
  "\u2581vahvistettava": 6421,
  "yhti\u00f6": 6422,
  "uk": 6423,
  "\u2581science": 6424,
  "mma": 6425,
  "\u2581menettely\u00e4": 6426,
  "ikan": 6427,
  "\u2581ohjaus": 6428,
  "\u2581eteen": 6429,
  "\u2581Power": 6430,
  "oi": 6431,
  "\u2581Gi": 6432,
  "ttek\u00f6": 6433,
  "\u2581korkean": 6434,
  "ial": 6435,
  "\u2581hyv\u00e4ksyy": 6436,
  "\u2581osapuolten": 6437,
  "\u2581velvoittava": 6438,
  "KE": 6439,
  "\u2581Henry": 6440,
  "\u2581manage": 6441,
  "tyy": 6442,
  "\u2581uniform": 6443,
  "\u2581voisin": 6444,
  "\u2581muistuttaa": 6445,
  "\u2581kuuli": 6446,
  "\u2581velje": 6447,
  "\u2581Vasta": 6448,
  "\u2581nais": 6449,
  "ME": 6450,
  "\u2581Maailman": 6451,
  "\u2581kuningaskunta": 6452,
  "kis": 6453,
  "\u2581remove": 6454,
  "\u2581t\u00e4yt\u00e4nt\u00f6\u00f6npanon": 6455,
  "\u2581K\u00e4yt\u00e4": 6456,
  "\u2581yhteisest\u00e4": 6457,
  "vista": 6458,
  "/1": 6459,
  "tamme": 6460,
  "\u2581powder": 6461,
  "\u2581Muutetaan": 6462,
  "\u2581imposed": 6463,
  "\u2581REGULATION": 6464,
  "\u2581(\"": 6465,
  "\u2581asemassa": 6466,
  "SP": 6467,
  "\u2581taistelu": 6468,
  "inti": 6469,
  "\u2581vessel": 6470,
  "merkki": 6471,
  "\u2581plane": 6472,
  "\u2581hengen": 6473,
  "\u2581avo": 6474,
  "\u2581hankki": 6475,
  "\u2581pelastaa": 6476,
  "\u2581Siihen": 6477,
  "\u2581Ken": 6478,
  "ries": 6479,
  "2005": 6480,
  "\u2581aamulla": 6481,
  "\u2581Day": 6482,
  "asetus": 6483,
  "\u2581annettiin": 6484,
  "\u2581greatest": 6485,
  "\u2581liikenteen": 6486,
  "\u2581riit\u00e4": 6487,
  "\u2581Further": 6488,
  "\u2581siirt\u00e4\u00e4": 6489,
  "\u2581esille": 6490,
  "\u2581kehitt\u00e4misen": 6491,
  "\u2581reforms": 6492,
  "\u2581sie": 6493,
  "\u2581feels": 6494,
  "Te": 6495,
  "87": 6496,
  "\u2581lehti": 6497,
  "\u2581Amsterdam": 6498,
  "sko": 6499,
  "\u2581Ett\u00e4": 6500,
  "\u2581worried": 6501,
  "kohta": 6502,
  "\u2581fighting": 6503,
  "\u2581sanoma": 6504,
  "isesta": 6505,
  "\u2581yliopisto": 6506,
  "\u2581diseases": 6507,
  "\u2581selection": 6508,
  "\u2581percent": 6509,
  "\u2581strengthening": 6510,
  "\u2581spoke": 6511,
  "93": 6512,
  "\u2581ohje": 6513,
  "1997": 6514,
  "llisuus": 6515,
  "\u2581rahoitusta": 6516,
  "\u2581Lopuksi": 6517,
  "\u2581m\u00e4\u00e4r\u00e4t": 6518,
  "/5": 6519,
  "\u2581Esi": 6520,
  "\u2581Yhdysvaltojen": 6521,
  "\u2581merkitt\u00e4vi\u00e4": 6522,
  "\u2581jatka": 6523,
  "\u2581anta": 6524,
  "\u2581yleissopimuksen": 6525,
  "69": 6526,
  "\u2581boat": 6527,
  "\u2581kuuma": 6528,
  "\u2581mobile": 6529,
  "\u2581Saanko": 6530,
  "\u2581crucial": 6531,
  "\u2581ker\u00e4\u00e4": 6532,
  "\u2581Tulen": 6533,
  "SE": 6534,
  "emmin": 6535,
  "\u2581Post": 6536,
  "\u2581p\u00f6yt\u00e4kirjan": 6537,
  "\u2581tilan": 6538,
  "\u2581iron": 6539,
  "\u2581edisty": 6540,
  "\u2581Kuva": 6541,
  "vesi": 6542,
  "\u2581Asetus": 6543,
  "Me": 6544,
  "\u2581Min": 6545,
  "ksiin": 6546,
  "tonta": 6547,
  "\u2581tur": 6548,
  "\u2581taida": 6549,
  "\u2581ajatella": 6550,
  "cho": 6551,
  "\u2581worship": 6552,
  "\u2581hake": 6553,
  "\u2581ensimm\u00e4isess\u00e4": 6554,
  "\u2581hanki": 6555,
  "\u2581Google": 6556,
  "\u2581ensimm\u00e4ist\u00e4": 6557,
  "\u2581toimijoiden": 6558,
  "mie": 6559,
  "rahasto": 6560,
  "\u2581Street": 6561,
  "part": 6562,
  "\u2581erityist\u00e4": 6563,
  "\u2581vienti\u00e4": 6564,
  "\u2581tuotannon": 6565,
  "\u2581truly": 6566,
  "\u00a9": 6567,
  "\u2581viini": 6568,
  "\u2581askel": 6569,
  "\u2581finished": 6570,
  "\u2581ajatus": 6571,
  "\u2581mielen": 6572,
  "\u2581miles": 6573,
  "\u2581antavat": 6574,
  "\u2581disorders": 6575,
  "\u2581vahva": 6576,
  "\u2581becoming": 6577,
  "\u2581is\u00e4si": 6578,
  "\u2581hey": 6579,
  "/3": 6580,
  "\u2581Poika": 6581,
  "teit\u00e4": 6582,
  "\u2581Lis\u00e4t\u00e4\u00e4n": 6583,
  "\u2581j\u00e4t\u00e4": 6584,
  "\u2581proud": 6585,
  "\u2581willing": 6586,
  "rk": 6587,
  "key": 6588,
  "\u2581carbon": 6589,
  "\u2581allocated": 6590,
  "\u2581huume": 6591,
  "\u2581kaikkein": 6592,
  "\u2581examine": 6593,
  "\u2581refer": 6594,
  "\u2581l\u00e4hetti": 6595,
  "\u2581variety": 6596,
  "\u2581t\u00e4yden": 6597,
  "\u2581viha": 6598,
  "\u2581respectively": 6599,
  "\u2581realize": 6600,
  "\u2581movie": 6601,
  "\u2581tavoitteen": 6602,
  "\u2581Dar": 6603,
  "\u2581religion": 6604,
  "\u2581Earth": 6605,
  "\u2581alcohol": 6606,
  "mal": 6607,
  "\u2581tavarat": 6608,
  "MS": 6609,
  "\u2581finance": 6610,
  "\u2581desire": 6611,
  "lke": 6612,
  "tyt": 6613,
  "low": 6614,
  "Cause": 6615,
  "\u2581favor": 6616,
  "ney": 6617,
  "\u2581Chi": 6618,
  "teko": 6619,
  "\u2581unique": 6620,
  "\u2581HIV": 6621,
  "\u2581suggest": 6622,
  "\u2581inspection": 6623,
  "\u2581Media": 6624,
  "\u2581error": 6625,
  "\u2581osiltaan": 6626,
  "\u2581Strategy": 6627,
  "\u2581statistical": 6628,
  "\u2581Kau": 6629,
  "\u2581frequency": 6630,
  "\u2581stress": 6631,
  "\u2581college": 6632,
  "ria": 6633,
  "\u2581vali": 6634,
  "\u2581introduce": 6635,
  "1998": 6636,
  "\u2581clothes": 6637,
  "\u2581puhuu": 6638,
  "Li": 6639,
  "lit": 6640,
  "\u2581raw": 6641,
  "\u2581L\u00e4het\u00e4": 6642,
  "\u2581Yet": 6643,
  "\u2581finding": 6644,
  "oon": 6645,
  "\u2581asiakirja": 6646,
  "\u2581Jane": 6647,
  "\u2581stakeholders": 6648,
  "\u2581buildings": 6649,
  "\u2581Vir": 6650,
  "\u2581race": 6651,
  "aari": 6652,
  "\u2581Er": 6653,
  "(2)": 6654,
  "Ko": 6655,
  "\u2581Standard": 6656,
  "\u2581statements": 6657,
  "\u2581god": 6658,
  "\u2581organization": 6659,
  "\u2581tutkimuksissa": 6660,
  "\u2581Minne": 6661,
  "\u2581ottanut": 6662,
  "\u2581Kal": 6663,
  "arvon": 6664,
  "\u2581arvosta": 6665,
  "\u2581nimitt\u00e4in": 6666,
  "\u2581mi": 6667,
  "kustannukset": 6668,
  "\u2581mainittu": 6669,
  "\u2581kyseiset": 6670,
  "\u2581matkailu": 6671,
  "\u2581renewable": 6672,
  "\u2581Muista": 6673,
  "kk\u00e4\u00e4": 6674,
  "\u2581regime": 6675,
  "\u2581victim": 6676,
  "iini": 6677,
  "\u2581taxes": 6678,
  "\u258103": 6679,
  "\u2581v\u00e4ltt\u00e4\u00e4": 6680,
  "\u2581sopimusten": 6681,
  "\u2581stocks": 6682,
  "\u2581Following": 6683,
  "\u2581Wa": 6684,
  "\u25811234/2007": 6685,
  "\u2581aamu": 6686,
  "etti": 6687,
  "\u2581mets\u00e4": 6688,
  "art": 6689,
  "\u2581voitto": 6690,
  "\u2581J\u00e4senvaltiot": 6691,
  "58": 6692,
  "\u2581kuolla": 6693,
  "\u2581sopimusta": 6694,
  "komitean": 6695,
  "\u2581katsomaan": 6696,
  "\u2581healthy": 6697,
  "\u2581http": 6698,
  "\u2581s\u00e4ilytt\u00e4\u00e4": 6699,
  "\u2581suurta": 6700,
  "\u2581Pal": 6701,
  "\u2581officer": 6702,
  "ach": 6703,
  "\u2581satama": 6704,
  "alainen": 6705,
  "\u2581k\u00e4yt\u00e4nn\u00f6ss\u00e4": 6706,
  "\u2581named": 6707,
  "\u2581Someone": 6708,
  "stasi": 6709,
  "\u2581Ly": 6710,
  "\u2581arm": 6711,
  "\u2581tree": 6712,
  "\u2581Liite": 6713,
  "\u2581rasva": 6714,
  "pito": 6715,
  "\u2581appointed": 6716,
  "\u2581firms": 6717,
  "\u2581gift": 6718,
  "\u2581rake": 6719,
  "\u2581ilmasto": 6720,
  "\u2581Opinion": 6721,
  "\u2581viranomainen": 6722,
  "\u2581j\u00e4tti": 6723,
  "\u2581substantial": 6724,
  "\u2581sotilas": 6725,
  "\u2581Wow": 6726,
  "\u2581borders": 6727,
  "\u2581oikeastaan": 6728,
  "vyys": 6729,
  "CH": 6730,
  "\u2581avun": 6731,
  "\u2581niinkuin": 6732,
  "ica": 6733,
  "\u2581Press": 6734,
  "\u2581despite": 6735,
  "\u2581ring": 6736,
  "71": 6737,
  "nie": 6738,
  "\u2581aikoina": 6739,
  "\u2581Etsi": 6740,
  "\u2581sijainti": 6741,
  "\u2581ty\u00f6st\u00e4": 6742,
  "\u2581critical": 6743,
  "\u2581wedding": 6744,
  "\u2581chain": 6745,
  "\u2581toimiva": 6746,
  "\u2581Bob": 6747,
  "\u2581Dis": 6748,
  "\u2581AS": 6749,
  "\u2581ratkaista": 6750,
  "\u2581tar": 6751,
  "\u258171": 6752,
  "\u2581Big": 6753,
  "\u2581Master": 6754,
  "ld": 6755,
  "\u2581naimisiin": 6756,
  "\u2581v\u00e4h\u00e4": 6757,
  "\u2581Lin": 6758,
  "\u2581yst\u00e4v\u00e4ni": 6759,
  "tyyppi": 6760,
  "\u2581painoprosenttia": 6761,
  "2018": 6762,
  "\u2581ylitt\u00e4\u00e4": 6763,
  "\u2581tilintarkastus": 6764,
  "\u2581laina": 6765,
  "\u2581Mag": 6766,
  "\u2581toimenpide": 6767,
  "\u2581securities": 6768,
  "n\u00e4k\u00f6": 6769,
  "henkil\u00f6": 6770,
  "itten": 6771,
  "\u2581rail": 6772,
  "\u2581palvelun": 6773,
  "\u2581esitti": 6774,
  "red": 6775,
  "\u2581Noin": 6776,
  "\u2581supports": 6777,
  "\u2581seuraavien": 6778,
  "tiedostotunniste": 6779,
  "bri": 6780,
  "\u2581broke": 6781,
  "\u2581micro": 6782,
  "\u2581votes": 6783,
  "responsibilities": 6784,
  "\u2581Inter": 6785,
  "\u2581todettu": 6786,
  "\u2581Funds": 6787,
  "\u2581removed": 6788,
  "rus": 6789,
  "\u258179": 6790,
  "\u2581ratio": 6791,
  "\u2581kuvan": 6792,
  "\u2581n\u00e4et": 6793,
  "\u2581kidding": 6794,
  "tt\u00e4m\u00e4\u00e4n": 6795,
  "\u25814,": 6796,
  "\u2581declared": 6797,
  "\u2581Pen": 6798,
  "UL": 6799,
  "\u2581constitute": 6800,
  "\u2581lis\u00e4t\u00e4\u00e4n": 6801,
  "\u2581perheen": 6802,
  "\u2581s\u00e4ily": 6803,
  "\u2581threat": 6804,
  "\u2581powerful": 6805,
  "\u2581Regions": 6806,
  "\u2581pleasure": 6807,
  "\u2581yhdenmukais": 6808,
  "\u2581huolto": 6809,
  "king": 6810,
  "\u2581destroy": 6811,
  "\u2581p\u00e4\u00e4ttyy": 6812,
  "\u2581passenger": 6813,
  "ano": 6814,
  "ID": 6815,
  "kkaan": 6816,
  "\u2581Ze": 6817,
  "\u2581humans": 6818,
  "\u2581vihaa": 6819,
  "\u2581operate": 6820,
  "\u2581toteutetaan": 6821,
  "\u2581vegetables": 6822,
  "\u2581danger": 6823,
  "\u2581combat": 6824,
  "\u2581Fine": 6825,
  "\u2581Description": 6826,
  "\u2581L\u00e4hde": 6827,
  "\u2581Kir": 6828,
  "\u2581muilla": 6829,
  "\u2581facts": 6830,
  "\u2581latter": 6831,
  "\u2581accounting": 6832,
  "\u2581pur": 6833,
  "bel": 6834,
  "llesi": 6835,
  "\u2581renal": 6836,
  "und": 6837,
  "\u2581(\u2018": 6838,
  "\u2581miss\u00e4\u00e4n": 6839,
  "j\u00e4rjestelm\u00e4t": 6840,
  "\u2581panna": 6841,
  "\u2581ry": 6842,
  "\u2581parlamentissa": 6843,
  "\u2581j\u00e4rjest\u00e4\u00e4": 6844,
  "\u258168": 6845,
  "\u2581edun": 6846,
  "\u2581communications": 6847,
  "ov": 6848,
  "str": 6849,
  "\u2581Ilman": 6850,
  "\u2581defence": 6851,
  "\u2581vastaus": 6852,
  "bar": 6853,
  "st\u00f6": 6854,
  "\u2581Kysy": 6855,
  "\u2581(3": 6856,
  "\u2581driver": 6857,
  "\u00b1": 6858,
  "\u2581Jim": 6859,
  "\u2581piiriin": 6860,
  "\u2581Index": 6861,
  "muoto": 6862,
  "\u2581Port": 6863,
  "\u2581imagine": 6864,
  "\u2581star": 6865,
  "\u2581ilmoitus": 6866,
  "\u2581vaikuta": 6867,
  "ls": 6868,
  "\u2581VIII": 6869,
  "\u2581Water": 6870,
  "\u2581tarjoa": 6871,
  "\u2581juoma": 6872,
  "\u2581bus": 6873,
  "\u2581liittyv\u00e4\u00e4": 6874,
  "\u2581lue": 6875,
  "\u2581fraud": 6876,
  "\u2581Tie": 6877,
  "\u2581Em": 6878,
  "\u2581asetettu": 6879,
  "tavat": 6880,
  "\u2581elections": 6881,
  "\u2581omia": 6882,
  "peri": 6883,
  "\u25a1": 6884,
  "\u2581fit": 6885,
  "\u2581guarantees": 6886,
  "\u2581ASETUKSEN": 6887,
  "isa": 6888,
  "\u2581busy": 6889,
  "\u2581netto": 6890,
  "\u2581velkaa": 6891,
  "ema": 6892,
  "j\u00e4rjestelm\u00e4\u00e4n": 6893,
  "\u2581answers": 6894,
  "\u2581speech": 6895,
  "nnista": 6896,
  "\u2581path": 6897,
  "\u2581ball": 6898,
  "\u2581Maria": 6899,
  "press": 6900,
  "\u2581geographical": 6901,
  "rate": 6902,
  "itko": 6903,
  "\u2581lapsille": 6904,
  "\u2581quantity": 6905,
  "stin": 6906,
  "roi": 6907,
  "\u2581chosen": 6908,
  "\u2581henke\u00e4": 6909,
  "\u2581pol": 6910,
  "\u2581believes": 6911,
  "\u2581m\u00e4\u00e4r\u00e4ysten": 6912,
  "\u2581verran": 6913,
  "\u2581Yhdysvaltain": 6914,
  "laatu": 6915,
  "\u00f6ljy": 6916,
  "\u2581immediate": 6917,
  "\u2581pictures": 6918,
  "-4": 6919,
  "\u2581Nelj\u00e4": 6920,
  "\u2581taloudellinen": 6921,
  "\u2581S\u00e4hk\u00f6": 6922,
  "\u2581p\u00e4\u00e4t\u00f6ksell\u00e4": 6923,
  "\u2581jakelu": 6924,
  "89": 6925,
  "sesta": 6926,
  "\u2581kasvua": 6927,
  "ces": 6928,
  "toimien": 6929,
  "\u25811991": 6930,
  "\u2581katu": 6931,
  "\u2581yksinkertaista": 6932,
  "\u2581Mikset": 6933,
  "\u2581neuvottelu": 6934,
  "uka": 6935,
  "\u2581au": 6936,
  "vuosi": 6937,
  "\u2581restrictions": 6938,
  "\u2581neste": 6939,
  "\u2581injury": 6940,
  "AD": 6941,
  "\u2581jatko": 6942,
  "Article": 6943,
  "PS": 6944,
  "\u2581n\u00e4ki": 6945,
  "\u2581viikko": 6946,
  "\u2581largest": 6947,
  "\u2581Regional": 6948,
  "\u2581loan": 6949,
  "\u2581ihmisoikeus": 6950,
  "\u2581Welcome": 6951,
  "\u2581Everyone": 6952,
  "\u2581Ministry": 6953,
  "\u2581pysy\u00e4": 6954,
  "\u2581discrimination": 6955,
  "\u2581Voitko": 6956,
  "\u2581formal": 6957,
  "\u2581lista": 6958,
  "\u2581aurinko": 6959,
  "\u2581institutional": 6960,
  "\u2581laite": 6961,
  "\u2581esitt\u00e4m\u00e4": 6962,
  "\u2581paine": 6963,
  "\u2581olevista": 6964,
  "\u2581todistaja": 6965,
  "Olen": 6966,
  "\u2581lucky": 6967,
  "\u2581worst": 6968,
  "stani": 6969,
  "\u2581screen": 6970,
  "\u2581huomattava": 6971,
  "vuotiaat": 6972,
  "2006": 6973,
  "\u2581huole": 6974,
  "liini": 6975,
  "\u2581background": 6976,
  "\u2581uni": 6977,
  "\u2581records": 6978,
  "ija": 6979,
  "\u2581keskuudessa": 6980,
  "\u2581l\u00e4\u00e4k\u00e4rin": 6981,
  "\u2581tavara": 6982,
  "\u2581Belgium": 6983,
  "\u2581horse": 6984,
  "\u2581sy\u00f6d\u00e4": 6985,
  "\u2581HYV\u00c4KSYN": 6986,
  "\u2581modified": 6987,
  "\u2581tiede": 6988,
  "\u2581kuuden": 6989,
  "\u2581Espanjan": 6990,
  "\u2581participating": 6991,
  "\u2581kumppani": 6992,
  "\u2581suhde": 6993,
  "\u2581allocation": 6994,
  "\u2581thousands": 6995,
  "j\u00e4t": 6996,
  "\u2581mad": 6997,
  "\u2581crew": 6998,
  "\u25812008,": 6999,
  "91": 7000,
  "\u2581experienced": 7001,
  "\u2581kansalaiset": 7002,
  "\u2581answered": 7003,
  "\u2581session": 7004,
  "\u2581toisella": 7005,
  "\u2581Auta": 7006,
  "\u2581Sana": 7007,
  "\u2581seuraavana": 7008,
  "\u2581muutettava": 7009,
  "IP": 7010,
  "\u2581perustuva": 7011,
  "\u2581mietinn\u00f6ss\u00e4": 7012,
  "\u2581Latvia": 7013,
  "\u2581ollessa": 7014,
  "\u2581bathroom": 7015,
  "\u2581boss": 7016,
  "\u2581Fuck": 7017,
  "ations": 7018,
  "eg": 7019,
  "\u25812016/": 7020,
  "\u2581sosiaaliturva": 7021,
  "/4": 7022,
  "\u2581kysyi": 7023,
  "ty\u00f6n": 7024,
  "ttaisiin": 7025,
  "\u2581liver": 7026,
  "\u2581nine": 7027,
  "\u2581toteutettu": 7028,
  "\u2581keskiarvo": 7029,
  "\u2581terrible": 7030,
  "\u2581Katsokaa": 7031,
  "\u2581opinions": 7032,
  "neit\u00e4": 7033,
  "\u2581permit": 7034,
  "lic": 7035,
  "\u2581hiljaa": 7036,
  "alla": 7037,
  "\u2581Jokainen": 7038,
  "\u2581Sometimes": 7039,
  "\u2581nopea": 7040,
  "\u2581sanot": 7041,
  "\u2581Muu": 7042,
  "\u2581annoksen": 7043,
  "\u2581riippuu": 7044,
  "94": 7045,
  "\u2581J\u00e4t\u00e4": 7046,
  "\u2581Trans": 7047,
  "\u2581hienoa": 7048,
  "\u2581ruisku": 7049,
  "\u2581kielt\u00e4": 7050,
  "lar": 7051,
  "\u2581p\u00e4iv\u00e4ss\u00e4": 7052,
  "\u2581Tein": 7053,
  "\u2581teach": 7054,
  "\u2581ajaa": 7055,
  "84": 7056,
  "\u0308": 7057,
  "\u2581versio": 7058,
  "yyden": 7059,
  "\u2581kehitt\u00e4mis": 7060,
  "\u2581strategian": 7061,
  "\u2581l\u00e4he": 7062,
  "hal": 7063,
  "Ra": 7064,
  "\u2581candidate": 7065,
  "\u2581remaining": 7066,
  "\u2581Barcelona": 7067,
  "\u2581Matt": 7068,
  "\u2581updated": 7069,
  "\u2581Control": 7070,
  "\u25812011.": 7071,
  "\u2581Land": 7072,
  "\u2581H\u00e4net": 7073,
  "v\u00e4line": 7074,
  "\u2581t\u00f6iss\u00e4": 7075,
  "\u2581Annual": 7076,
  "\u2581elokuva": 7077,
  "\u2581kivi": 7078,
  "77": 7079,
  "\u2581kartta": 7080,
  "\u2581kyl": 7081,
  "2016": 7082,
  "\u25812001/": 7083,
  "\u2581tein": 7084,
  "top": 7085,
  "aattori": 7086,
  "2015": 7087,
  "\u2581opetus": 7088,
  "\u2581vastusta": 7089,
  "mpien": 7090,
  "\u2581suunnittelu": 7091,
  "daan": 7092,
  "\u2581tehokas": 7093,
  "\u2581Tervetuloa": 7094,
  "\u258108": 7095,
  "kk\u00e4": 7096,
  "\u2581opettaja": 7097,
  "\u2581wild": 7098,
  "iva": 7099,
  "joiden": 7100,
  "\u2581summa": 7101,
  "\u2581Holy": 7102,
  "\u2581ohja": 7103,
  "ttia": 7104,
  "\u2581BE": 7105,
  "\u2581bo": 7106,
  "alueilla": 7107,
  "iri": 7108,
  "tella": 7109,
  "\u2581v\u00e4ltt\u00e4m\u00e4tt\u00e4": 7110,
  "\u2581walking": 7111,
  "\u2581showing": 7112,
  "\u2581vene": 7113,
  "\u2581yhteis\u00f6ss\u00e4": 7114,
  "isit": 7115,
  "alueiden": 7116,
  "\u2581selke\u00e4sti": 7117,
  "\u2581Consumer": 7118,
  "\u2581selville": 7119,
  "EA": 7120,
  "\u2581governance": 7121,
  "\u2581maksettava": 7122,
  "\u2581sake": 7123,
  "\u2581ECU": 7124,
  "osta": 7125,
  "\u2581offering": 7126,
  "\u2581wake": 7127,
  "\u2581kaukana": 7128,
  "\u2581pitk\u00e4lle": 7129,
  "\u2581Foreign": 7130,
  "\u2581vastasi": 7131,
  "\u2581employed": 7132,
  "\u2581hide": 7133,
  "\u2581update": 7134,
  "mit": 7135,
  "\u2581tiedotus": 7136,
  "sille": 7137,
  "\u2581liitto": 7138,
  "\u2581tilanteessa": 7139,
  "\u2581Both": 7140,
  "wood": 7141,
  "\u2581t\u00e4ysi": 7142,
  "\u2581valvo": 7143,
  "\u2581syd\u00e4men": 7144,
  "\u2581prosessi": 7145,
  "\u2581meren": 7146,
  "\u2581Fe": 7147,
  "sis": 7148,
  "\u2581rakastaa": 7149,
  "\u2581laadun": 7150,
  "\u2581aiot": 7151,
  "\u2581reflect": 7152,
  "\u2581h\u00e4t\u00e4": 7153,
  "\u2581Nobody": 7154,
  "000": 7155,
  "\u2581tasavalta": 7156,
  "\u2581toward": 7157,
  "piiri": 7158,
  "\u2581parhaillaan": 7159,
  "valtion": 7160,
  "\u2581oikeuksien": 7161,
  "\u2581ca": 7162,
  "\u2581tiesi": 7163,
  "\u2581vuo": 7164,
  "\u2581isku": 7165,
  "valo": 7166,
  "\u2581reaction": 7167,
  "\u2581ve": 7168,
  "s\u00e4\u00e4nt\u00f6jen": 7169,
  "\u258105": 7170,
  "\u2581levi": 7171,
  "\u2581pane": 7172,
  "\u2581supervision": 7173,
  "\u2581(19": 7174,
  "\u2581innovative": 7175,
  "\u2581varmista": 7176,
  "era": 7177,
  "\u2581dimension": 7178,
  "\u2581Bra": 7179,
  "\u2581format": 7180,
  "\u2581sis\u00e4ltyv\u00e4t": 7181,
  "\u2581determining": 7182,
  "\u2581Top": 7183,
  "\u2581eurooppalaisten": 7184,
  "\u2581technological": 7185,
  "km": 7186,
  "\u2581julkista": 7187,
  "excluding": 7188,
  "\u2581considerable": 7189,
  "\u2581piir": 7190,
  "dra": 7191,
  "pon": 7192,
  "vie": 7193,
  "\u2581student": 7194,
  "uko": 7195,
  "teollisuuden": 7196,
  "\u2581carefully": 7197,
  "\u2581quiet": 7198,
  "\u2581Mediterranean": 7199,
  "\u2581respective": 7200,
  "\u2581missed": 7201,
  "\u2581yrityksi\u00e4": 7202,
  "ble": 7203,
  "\u2581rare": 7204,
  "\u2581suojella": 7205,
  "\u2581measured": 7206,
  "\u2581Structural": 7207,
  "\u2581viestin": 7208,
  "\u2581forth": 7209,
  "\u2581t\u00e4llaisia": 7210,
  "\u2581compromise": 7211,
  "\u2581rahoi": 7212,
  "\u2581s\u00e4hk\u00f6posti": 7213,
  "vit": 7214,
  "\u2581licence": 7215,
  "\u2581Bio": 7216,
  "\u2581witness": 7217,
  "\u2581todeta": 7218,
  "\u2581yhdenmukaista": 7219,
  "\u2581gain": 7220,
  "/10": 7221,
  "\u25812013.": 7222,
  "\u2581Ihmiset": 7223,
  "rr": 7224,
  "\u2581comment": 7225,
  "\u25812004.": 7226,
  "teho": 7227,
  "\u2581Transport": 7228,
  "\u2581k\u00e4ytt\u00e4": 7229,
  "\u2581Tarvitsemme": 7230,
  "\u2581yhdell\u00e4": 7231,
  "\u2581h\u00e4nelt\u00e4": 7232,
  "\u2581Seuraava": 7233,
  "\u2581Instant": 7234,
  "\u2581enemp\u00e4\u00e4": 7235,
  "5-0": 7236,
  "tietojen": 7237,
  "viiri": 7238,
  "\u2581definitely": 7239,
  "\u2581my\u00f6nnet\u00e4\u00e4n": 7240,
  "ey": 7241,
  "\u2581Tulin": 7242,
  "\u2581ohjelmien": 7243,
  "\u2581Society": 7244,
  "mille": 7245,
  "\u258178": 7246,
  "\u2581Kristus": 7247,
  "74": 7248,
  "\u2581nimens\u00e4": 7249,
  "ttoman": 7250,
  "bro": 7251,
  "\u2581pelej\u00e4": 7252,
  "\u2581matkustaja": 7253,
  "\u2581helppoa": 7254,
  "\u2581(10": 7255,
  "\u2581kirje": 7256,
  "\u2581jakaa": 7257,
  "ark": 7258,
  "\u258167": 7259,
  "\u2581connected": 7260,
  "\u2581saavuttamiseksi": 7261,
  "ea": 7262,
  "\u2581master": 7263,
  "\u2581sanat": 7264,
  "\u2581kirjoittaa": 7265,
  "gy": 7266,
  "\u2581sinulta": 7267,
  "\u2581j\u00e4lki": 7268,
  "\u2581guidance": 7269,
  "\u2581purchase": 7270,
  "LE": 7271,
  "\u2581vaihe": 7272,
  "2017": 7273,
  "\u2581promised": 7274,
  "%)": 7275,
  "\u2581settlement": 7276,
  "\u2581m\u00e4\u00e4r\u00e4t\u00e4\u00e4n": 7277,
  "kea": 7278,
  "\u2581fourth": 7279,
  "\u2581Mc": 7280,
  "siirto": 7281,
  "\u2581Carl": 7282,
  "\u2581selke\u00e4": 7283,
  "-5": 7284,
  "\u2581Alan": 7285,
  "\u2581color": 7286,
  "\u2581helps": 7287,
  "sis\u00e4markkinoiden": 7288,
  "\u2581v\u00e4est\u00f6": 7289,
  "\u2581competence": 7290,
  "\u258163": 7291,
  "\u2581holy": 7292,
  ":00": 7293,
  "\u2581jossain": 7294,
  "\u2581yhdistelm\u00e4": 7295,
  "\u2581Think": 7296,
  "\u2581exporting": 7297,
  "\u25812006,": 7298,
  "\u2581Environment": 7299,
  "\u2581Base": 7300,
  "\u2581jakso": 7301,
  "\u2581vapautu": 7302,
  "osi": 7303,
  "ik": 7304,
  "etaan": 7305,
  "af": 7306,
  "tynyt": 7307,
  "nu": 7308,
  "\u2581kana": 7309,
  "\u2581manufacturing": 7310,
  "\u2581olisit": 7311,
  "\u2581valtaa": 7312,
  "\u2581yhteiskunta": 7313,
  "\u2581assessed": 7314,
  "\u2581ships": 7315,
  "\u2581exports": 7316,
  "\u2581ollaan": 7317,
  "\u2581toimitetaan": 7318,
  "\u2581suffering": 7319,
  "\u2581mahdollistaa": 7320,
  "\u2581nosta": 7321,
  "\u2581miehi\u00e4": 7322,
  "\u2581Leave": 7323,
  "\u2581p\u00e4\u00e4t\u00f6st\u00e4": 7324,
  "\u2581voisimme": 7325,
  "\u2581Eiv\u00e4t": 7326,
  "lah": 7327,
  "teri": 7328,
  "\u2581pullo": 7329,
  "\u2581agency": 7330,
  "\u2581becomes": 7331,
  "gia": 7332,
  "\u2581north": 7333,
  "62": 7334,
  "\u2581tablet": 7335,
  "enne": 7336,
  "\u2581erikseen": 7337,
  "\u2581auta": 7338,
  "\u2581sis\u00e4lt\u00f6": 7339,
  "\u2581Czech": 7340,
  "\u2581kolmansi": 7341,
  "que": 7342,
  "\u2581todistaa": 7343,
  "\u2581blow": 7344,
  "\u2581kansallista": 7345,
  "\u2581naisia": 7346,
  "ability": 7347,
  "\u2581tired": 7348,
  "toimisto": 7349,
  "verkko": 7350,
  "\u2581em": 7351,
  "\u2581taxation": 7352,
  "mann": 7353,
  "\u2581Kuulin": 7354,
  "\u2581concrete": 7355,
  "\u2581nearly": 7356,
  "\u2581route": 7357,
  "\u2581Norway": 7358,
  "\u2581kauppaa": 7359,
  "\u2581Amendment": 7360,
  "\u2581kasvun": 7361,
  "\u2581RT": 7362,
  "\u2581Ulko": 7363,
  "\u2581Kirja": 7364,
  "\u2581mill\u00e4": 7365,
  "\u2581todettiin": 7366,
  "\u2581thy": 7367,
  "\u2581sijoitus": 7368,
  "\u2581increases": 7369,
  "house": 7370,
  "\u2581kertomus": 7371,
  "\u2581Luke": 7372,
  "med": 7373,
  "saira": 7374,
  "\u2581N\u00e4it\u00e4": 7375,
  "\u2581yh": 7376,
  "\u2581prosenttiin": 7377,
  "\u2581toivon": 7378,
  "gli": 7379,
  "\u2581decreased": 7380,
  "\u2581valvontaa": 7381,
  "ph": 7382,
  "\u2581ulkona": 7383,
  "\u2581gender": 7384,
  "\u2581judicial": 7385,
  "\u2581saamaan": 7386,
  "\u2581Pit\u00e4\u00e4": 7387,
  "loista": 7388,
  "\u2581tulevaisuuden": 7389,
  "\u2581Super": 7390,
  "\u2581television": 7391,
  "edu": 7392,
  "\u2581tarjo": 7393,
  "\u2581tietysti": 7394,
  "\u2581youth": 7395,
  "mas": 7396,
  "vuoden": 7397,
  "TS": 7398,
  "\u2581ehdotusta": 7399,
  "\u2581Sin": 7400,
  "\u2581aikav\u00e4lill\u00e4": 7401,
  "ally": 7402,
  "\u2581kitchen": 7403,
  "\u2581false": 7404,
  "\u2581zone": 7405,
  "\u2581Viel\u00e4": 7406,
  "onin": 7407,
  "\u2581omien": 7408,
  "\u2581nation": 7409,
  "\u2581exception": 7410,
  "\u2581hallinnon": 7411,
  "ize": 7412,
  "\u2581kannan": 7413,
  "\u2581el\u00e4ke": 7414,
  "\u2581Bosnia": 7415,
  "\u2581hankkeiden": 7416,
  "joita": 7417,
  "\u2581audit": 7418,
  "\u2581season": 7419,
  "\u2581selvi\u00e4": 7420,
  "81": 7421,
  "\u2581Tutkimus": 7422,
  "\u2581Agriculture": 7423,
  "\u2581mahdollisuudet": 7424,
  "tz": 7425,
  "vaihe": 7426,
  "haa": 7427,
  "\u2581appeal": 7428,
  "\u2581Move": 7429,
  "\u2581SO": 7430,
  "\u2581t\u00e4hti": 7431,
  "p\u00e4\u00e4t\u00f6s": 7432,
  "\u2581arrest": 7433,
  "kasta": 7434,
  "ISSN": 7435,
  "\u2581enhance": 7436,
  "\u2581elokuuta": 7437,
  "\u2581doses": 7438,
  "\u2581j\u00e4rjest\u00f6": 7439,
  "\u2581yleist\u00e4": 7440,
  "AP": 7441,
  "\u2581im": 7442,
  "hoitoa": 7443,
  "\u2581tonnes": 7444,
  "tuksessa": 7445,
  "\u25812011/": 7446,
  "\u25816:": 7447,
  "geeni": 7448,
  "\u2581BKT": 7449,
  "\u2581etuja": 7450,
  "\u2581examined": 7451,
  "\u2581causes": 7452,
  "Min\u00e4": 7453,
  "tavan": 7454,
  "\u2581varainhoito": 7455,
  "\u2581Cooperation": 7456,
  "\u2581strange": 7457,
  "kkeet": 7458,
  "(4)": 7459,
  "\u2581perusta": 7460,
  "\u2581Ilma": 7461,
  "\u2581assist": 7462,
  "ettu": 7463,
  "\u2581mahdollinen": 7464,
  "tyksi\u00e4": 7465,
  "\u2581Sy\u00f6": 7466,
  "\u2581pleased": 7467,
  "TEN": 7468,
  "luokka": 7469,
  "\u2581taught": 7470,
  "\u2581haku": 7471,
  "\u2581Chris": 7472,
  "\u2581Ter": 7473,
  "\u2581suffer": 7474,
  "\u2581Procedure": 7475,
  "\u2581stick": 7476,
  "\u2581tappoi": 7477,
  "VE": 7478,
  "ette": 7479,
  "\u2581asiakirjat": 7480,
  "\u2581solid": 7481,
  "lt\u00e4\u00e4n": 7482,
  "\u2581urban": 7483,
  "\u2581warning": 7484,
  "kuvio": 7485,
  "\u2581Cal": 7486,
  "\u2581square": 7487,
  "\u2581thou": 7488,
  "\u2581procurement": 7489,
  "ENT": 7490,
  "\u2581command": 7491,
  "\u2581involvement": 7492,
  "ittain": 7493,
  "\u2581juna": 7494,
  "\u2581noise": 7495,
  "utua": 7496,
  "\u2581calm": 7497,
  "\u2581retail": 7498,
  "\u2581tariff": 7499,
  "ising": 7500,
  "\u2581ajoneuvon": 7501,
  "\u2581vaikutusten": 7502,
  "ology": 7503,
  "\u2581Mari": 7504,
  "\u2581Roman": 7505,
  "\u2581ruumii": 7506,
  "\u2581haluatte": 7507,
  "\u2581previously": 7508,
  "\u2581p\u00e4\u00e4telm\u00e4t": 7509,
  "\u2581vapautta": 7510,
  "\u2581Han": 7511,
  "\u2581ISO": 7512,
  "5)": 7513,
  "gh": 7514,
  "ou": 7515,
  "\u2581load": 7516,
  "\u2581passengers": 7517,
  "\u2581koskevissa": 7518,
  "\u2581T\u00e4n\u00e4\u00e4n": 7519,
  "\u2581explained": 7520,
  "ik\u00e4": 7521,
  "\u2581tausta": 7522,
  "\u2581upea": 7523,
  "\u2581mandate": 7524,
  "\u2581voitava": 7525,
  "\u2581Talous": 7526,
  "\u2581pojan": 7527,
  "field": 7528,
  "\u00a1": 7529,
  "oppi": 7530,
  "\u2581ilmoitti": 7531,
  "ele": 7532,
  "\u2581covers": 7533,
  "\u2581parantamiseksi": 7534,
  "\u2581mat": 7535,
  "\u2581contrary": 7536,
  "\u2581talon": 7537,
  "viraston": 7538,
  "\u2581lukea": 7539,
  "\u2581trials": 7540,
  "ization": 7541,
  "\u2581trend": 7542,
  "\u2581disposal": 7543,
  "82": 7544,
  "\u25812007,": 7545,
  "\u2581este": 7546,
  "\u2581goals": 7547,
  "\u2581judge": 7548,
  "\u2581spring": 7549,
  "mel": 7550,
  "\u2581flat": 7551,
  "\u2581tarina": 7552,
  "toimenpiteit\u00e4": 7553,
  "\u2581Richard": 7554,
  "\u2581host": 7555,
  "\u2581Nick": 7556,
  "\u2581derogation": 7557,
  "riski": 7558,
  "\u2581nousu": 7559,
  "\u2581Henkil\u00f6": 7560,
  "\u25812018,": 7561,
  "asti": 7562,
  "\u2581fly": 7563,
  "\u2581kunnolla": 7564,
  "\u2581pelata": 7565,
  "\u2581classification": 7566,
  "\u2581vakaa": 7567,
  "\u2581primarily": 7568,
  "\u2581my\u00f6nnett\u00e4v\u00e4": 7569,
  "\u2581changing": 7570,
  "\u2581mahtava": 7571,
  "\u2581maataloustuotte": 7572,
  "\u2581awareness": 7573,
  "\u2581pelaa": 7574,
  "\u25812008)": 7575,
  "\u2581asylum": 7576,
  "\u2581provisional": 7577,
  "\u2581todisteita": 7578,
  "dio": 7579,
  "\u2581birthday": 7580,
  "\u2581hakea": 7581,
  "\u2581kohteena": 7582,
  "\u2581tuhoa": 7583,
  "lim": 7584,
  "well": 7585,
  "\u2581korjaus": 7586,
  "\u2581Schengen": 7587,
  "\u2581valitse": 7588,
  "\u00ea": 7589,
  "vaihto": 7590,
  "\u2581dogs": 7591,
  "\u2581lopuksi": 7592,
  "\u2581battle": 7593,
  "\u2581Valitse": 7594,
  "\u2581palasi": 7595,
  "\u2581island": 7596,
  "ulo": 7597,
  "\u2581character": 7598,
  "\u2581transparent": 7599,
  "\u2581continues": 7600,
  "\u2581ly\u00f6": 7601,
  "\u2581honor": 7602,
  "\u2581luovu": 7603,
  "\u2581Sarah": 7604,
  "\u2581ohjelmisto": 7605,
  "\u2581south": 7606,
  "\u2581witnesses": 7607,
  "\u2581granting": 7608,
  "\u25811.1": 7609,
  "\u2581maksan": 7610,
  "\u2581Malta": 7611,
  "\u2581olevaan": 7612,
  "ehdot": 7613,
  "\u2581hydro": 7614,
  "nto": 7615,
  "ight": 7616,
  "\u2581kriisi": 7617,
  "\u2581spot": 7618,
  "work": 7619,
  "\u2581poliittinen": 7620,
  "\u2581ilta": 7621,
  "\u2581kahta": 7622,
  "vuutta": 7623,
  "yksi": 7624,
  "\u2581tea": 7625,
  "\u2581Secretary": 7626,
  "\u2581k\u00e4sittelev\u00e4n": 7627,
  "\u2581rakastan": 7628,
  "isista": 7629,
  "\u2581oppia": 7630,
  "\u2581personnel": 7631,
  "\u2581t\u00f6ihin": 7632,
  "teltu": 7633,
  "\u2581justified": 7634,
  "\u2581kovasti": 7635,
  "hta": 7636,
  "\u2581piilo": 7637,
  "\u2581poliittisen": 7638,
  "\u2581loistava": 7639,
  "\u2581discussions": 7640,
  "\u2581terveytt\u00e4": 7641,
  "\u2581valiokunnan": 7642,
  "\u2581tarkistaa": 7643,
  "tutkimus": 7644,
  "\u2581Looks": 7645,
  "\u2581possibly": 7646,
  "\u2581warm": 7647,
  "\u2581j": 7648,
  "\u2581pomo": 7649,
  "\u2581kutsutaan": 7650,
  "\u2581tulivat": 7651,
  "\u258169": 7652,
  "hl": 7653,
  "\u25812014.": 7654,
  "\u2581servants": 7655,
  "\u2581Long": 7656,
  "\u2581Blue": 7657,
  "\u2581tarkasti": 7658,
  "\u2581Espanja": 7659,
  "\u2581L\u00e4": 7660,
  "\u2581lunch": 7661,
  "\u2581apart": 7662,
  "\u2581laatima": 7663,
  "PL": 7664,
  "\u2581n\u00e4iss\u00e4": 7665,
  "\u2581tulosten": 7666,
  "\u25814.2": 7667,
  "muksen": 7668,
  "koko": 7669,
  "\u2581mess": 7670,
  "stra": 7671,
  "\u2581hyv\u00e4ksytt\u00e4v\u00e4": 7672,
  "\u2581index": 7673,
  "\u2581signal": 7674,
  "\u25812009/": 7675,
  "\u2581Pri": 7676,
  "\u2581aikuis": 7677,
  "\u2581obviously": 7678,
  "\u2581achieving": 7679,
  "ip": 7680,
  "\u2581uuteen": 7681,
  "m\u00e4t\u00f6n": 7682,
  "\u2581calculation": 7683,
  "\u2581fulfil": 7684,
  "\u2581Samoin": 7685,
  "\u2581saastu": 7686,
  "oista": 7687,
  "\u2581Work": 7688,
  "\u2581korvaus": 7689,
  "\u2581130": 7690,
  "\u2581selling": 7691,
  "\u2581vakavasti": 7692,
  "side": 7693,
  "\u2581hy\u00f6dynt\u00e4\u00e4": 7694,
  "\u2581Us": 7695,
  "st\u00e4\u00e4n": 7696,
  "\u2581ban": 7697,
  "\u2581Lis\u00e4": 7698,
  "\u2581mid": 7699,
  "\u2581pollution": 7700,
  "nnu": 7701,
  "\u2581planet": 7702,
  "\u2581ter": 7703,
  "\u2581kehitt\u00e4miseen": 7704,
  "vers": 7705,
  "eth": 7706,
  "tt\u00e4nyt": 7707,
  "\u2581sons": 7708,
  "fil": 7709,
  "tapa": 7710,
  "\u2581images": 7711,
  "\u2581viimeisen": 7712,
  "\u2581wearing": 7713,
  "\u2581suun": 7714,
  "uudet": 7715,
  "\u2581j\u00e4te": 7716,
  "\u2581Tuolla": 7717,
  "\u2581voting": 7718,
  "\u2581keskell\u00e4": 7719,
  "\u2581kysymyksen": 7720,
  "\u2581African": 7721,
  "\u258110:": 7722,
  "toimintaa": 7723,
  "\u2581potilaiden": 7724,
  "\u2581tapahtuma": 7725,
  "\u2581compatible": 7726,
  "\u2581shop": 7727,
  "\u2581accompanied": 7728,
  "\u2581Out": 7729,
  "matto": 7730,
  "\u2581velka": 7731,
  "\u2581tele": 7732,
  "\u2581Win": 7733,
  "sal": 7734,
  "\u2581hintojen": 7735,
  "\u25811.3.1": 7736,
  "\u2581hyv\u00e4ksyttiin": 7737,
  "\u2581Charles": 7738,
  "\u2581Facebook": 7739,
  "\u2581kuolee": 7740,
  "ute": 7741,
  "\u2581maintained": 7742,
  "\u2581kolmas": 7743,
  "\u2581Hetkinen": 7744,
  "\u2581Yo": 7745,
  "\u2581machinery": 7746,
  "\u2581er\u00e4": 7747,
  "\u2581arvioidaan": 7748,
  "piste": 7749,
  "\u2581extend": 7750,
  "\u2581soveltamisesta": 7751,
  "\u2581identity": 7752,
  "ssani": 7753,
  "YUTP": 7754,
  "\u2581koostuu": 7755,
  "TER": 7756,
  "vist\u00e4": 7757,
  "\u2581koulutusta": 7758,
  "\u2581tarvitset": 7759,
  "\u2581Pala": 7760,
  "\u2581Available": 7761,
  "\u2581Everybody": 7762,
  "onia": 7763,
  "\u2581paying": 7764,
  "\u2581surprise": 7765,
  "\u2581collected": 7766,
  "laitos": 7767,
  "\u2581feelings": 7768,
  "\u2581verification": 7769,
  "\u2581union": 7770,
  "mpi\u00e4": 7771,
  "\u2581turnover": 7772,
  "\u2581Add": 7773,
  "\u2581tuleva": 7774,
  "\u2581Pol": 7775,
  "\u2581Ymp\u00e4rist\u00f6": 7776,
  "\u2581toimitus": 7777,
  "\u2581sopiva": 7778,
  "\u2581muisto": 7779,
  "\u2581maihin": 7780,
  "\u2581oh": 7781,
  "\u2581julkisten": 7782,
  "\u2581preparations": 7783,
  "nos": 7784,
  "ff": 7785,
  "\u2581kaipaa": 7786,
  "\u2581tiet\u00e4v\u00e4t": 7787,
  "\u2581keskustelun": 7788,
  "\u2581schools": 7789,
  "pol": 7790,
  "\u2581sum": 7791,
  "ksi\u00e4": 7792,
  "\u2581terveyden": 7793,
  "\u2581farm": 7794,
  "\u2581pienempi": 7795,
  "\u2581classified": 7796,
  "\u2581Sign": 7797,
  "\u2581osoite": 7798,
  "teeseen": 7799,
  "\u2581rooms": 7800,
  "pot": 7801,
  "\u2581hallinta": 7802,
  "las": 7803,
  "\u2581honest": 7804,
  "\u2581Jimmy": 7805,
  "ara": 7806,
  "OL": 7807,
  "tauti": 7808,
  "oksen": 7809,
  "\u2581qualified": 7810,
  "\u2581Tony": 7811,
  "\u2581strategies": 7812,
  "\u2581tulit": 7813,
  "\u2581drinking": 7814,
  "\u2581yhten\u00e4is": 7815,
  "put": 7816,
  "\u2581industries": 7817,
  "ppu": 7818,
  "\u2581liability": 7819,
  "cia": 7820,
  "\u2581manufacture": 7821,
  "\u2581adult": 7822,
  "\u2581recommendation": 7823,
  "\u2581rejected": 7824,
  "tuksista": 7825,
  "\u2581toimivaltaist": 7826,
  "\u2581synti": 7827,
  "\u2581refers": 7828,
  "nder": 7829,
  "\u2581jumala": 7830,
  "\u2581jurisdiction": 7831,
  "\u2581rauha": 7832,
  "\u2581asuu": 7833,
  "\u2581center": 7834,
  "\u2581ty\u00f6h\u00f6n": 7835,
  "\u2581client": 7836,
  "\u2581allowing": 7837,
  "\u2581campaign": 7838,
  "\u2581Tor": 7839,
  "\u2581pojat": 7840,
  "erin": 7841,
  "\u2581truck": 7842,
  "\u2581career": 7843,
  "\u2581proportion": 7844,
  "\u2581Hinta": 7845,
  "\u2581m\u00e4\u00e4r\u00e4yksi\u00e4": 7846,
  "\u2581perustaa": 7847,
  "teihin": 7848,
  "\u2581flag": 7849,
  "\u2581quota": 7850,
  "\u2581M\u00e4\u00e4r\u00e4": 7851,
  "\u2581liittymis": 7852,
  "\u2581[4]": 7853,
  "\u2581hauska": 7854,
  "\u2581recommend": 7855,
  "\u2581olosuhteissa": 7856,
  "\u2581Er\u00e4s": 7857,
  "\u2581Agenda": 7858,
  "\u2581ihmisoikeuksien": 7859,
  "\u2581tonnia": 7860,
  "tt\u00f6": 7861,
  "\u2581nykyist\u00e4": 7862,
  "\u2581reply": 7863,
  "\u258177": 7864,
  "\u2581bottom": 7865,
  "\u2581puolet": 7866,
  "\u2581pyynn\u00f6n": 7867,
  "\u2581N\u00e4ytt\u00e4\u00e4": 7868,
  "\u2581Slovenia": 7869,
  "\u2581comparison": 7870,
  "\u2581Sub": 7871,
  "\u2581torju": 7872,
  "ev": 7873,
  "int": 7874,
  "act": 7875,
  "\u2581scene": 7876,
  "cus": 7877,
  "\u2581varat": 7878,
  "\u2581esimerkki": 7879,
  "\u2581artiklaa": 7880,
  "-6": 7881,
  "\u2581Still": 7882,
  "\u2581sait": 7883,
  "\u2581cop": 7884,
  "\u2581olimme": 7885,
  "\u2581oleviin": 7886,
  "IF": 7887,
  "\u2581lies": 7888,
  "\u2581taloudellisten": 7889,
  "\u2581propose": 7890,
  "\u2581photo": 7891,
  "\u2581oikean": 7892,
  "\u2581nykyisen": 7893,
  "\u2581RA": 7894,
  "ikki": 7895,
  "metri": 7896,
  "\u2581teht\u00e4v\u00e4t": 7897,
  "\u2581asemaa": 7898,
  "\u2581incorporated": 7899,
  "\u2581Send": 7900,
  "Do": 7901,
  "ima": 7902,
  "\u2581killer": 7903,
  "\u2581kysymyksiin": 7904,
  "\u2581push": 7905,
  "/2": 7906,
  "\u2581involve": 7907,
  "\u2581125": 7908,
  "\u2581samassa": 7909,
  "\u2581Muistatko": 7910,
  "\u2581ongelmat": 7911,
  "pel": 7912,
  "liikenteen": 7913,
  "\u2581Kirjaudu": 7914,
  "\u2581decrease": 7915,
  "\u2581oikeudet": 7916,
  "\u2581riskin": 7917,
  "\u2581huomio": 7918,
  "\u2581s\u00e4\u00e4nn\u00f6n": 7919,
  "\u2581housing": 7920,
  "\u2581Year": 7921,
  "NO": 7922,
  "\u2581stable": 7923,
  "\u2581Muuta": 7924,
  "\u2581muisti": 7925,
  "\u2581leaves": 7926,
  "pat": 7927,
  "\u2581bound": 7928,
  "\u2581p\u00e4\u00e4t\u00f6kset": 7929,
  "\u2581selvitys": 7930,
  "annos": 7931,
  "\u2581pahaa": 7932,
  "\u2581ihon": 7933,
  "\u2581normally": 7934,
  "\u2581returned": 7935,
  "\u2581infection": 7936,
  "levy": 7937,
  "\u2581s\u00e4hk\u00f6n": 7938,
  "kia": 7939,
  "\u2581emission": 7940,
  "\u25812014/": 7941,
  "2009": 7942,
  "hdin": 7943,
  "solu": 7944,
  "\u2581enimm\u00e4is": 7945,
  "\u2581Ali": 7946,
  "\u2581replace": 7947,
  "\u2581Say": 7948,
  "\u2581Niit\u00e4": 7949,
  "\u2581kansallisia": 7950,
  "\u2581Isn": 7951,
  "\u2581lasketaan": 7952,
  "\u2581interpretation": 7953,
  "\u2581vaike": 7954,
  "kkeen": 7955,
  "\u2581mahdolliset": 7956,
  "\u2581advanced": 7957,
  "\u2581Vii": 7958,
  "\u2581kokonaism\u00e4\u00e4r\u00e4": 7959,
  "\u2581n\u00e4lk\u00e4": 7960,
  "\u2581pack": 7961,
  "\u2581el\u00e4m\u00e4\u00e4n": 7962,
  "itti": 7963,
  "\u258194": 7964,
  "luettelo": 7965,
  "\u2581Berlin": 7966,
  "\u2581losses": 7967,
  "pyr": 7968,
  "villa": 7969,
  "joi": 7970,
  "stat": 7971,
  "ttanut": 7972,
  "ttomia": 7973,
  "\u2581Key": 7974,
  "\u2581asioiden": 7975,
  "\u2581p\u00e4\u00e4st\u00f6": 7976,
  "sessa": 7977,
  "\u2581kansallinen": 7978,
  "TM": 7979,
  "iv\u00e4t": 7980,
  "\u2581refund": 7981,
  "\u2581tarjouskilpailu": 7982,
  "\u2581harm": 7983,
  "\u2581hyper": 7984,
  "\u2581voitte": 7985,
  "\u2581Kaikkien": 7986,
  "\u2581matkalla": 7987,
  "\u2581Op": 7988,
  "\u2581availability": 7989,
  "ido": 7990,
  "\u2581vaati": 7991,
  "\u258174": 7992,
  "\u2581Tre": 7993,
  "taminen": 7994,
  "valvonta": 7995,
  "\u2581teknologia": 7996,
  "cul": 7997,
  "\u258173": 7998,
  "\u2581liity": 7999,
  "\u2581esitett\u00e4v\u00e4": 8000,
  "PR": 8001,
  "\u2581cr": 8002,
  "\u2581ya": 8003,
  "\u2581launched": 8004,
  "\u2581yritti": 8005,
  "\u25813-": 8006,
  "\u2581discharge": 8007,
  "shi": 8008,
  "\u2581pieni\u00e4": 8009,
  "\u2581ravintola": 8010,
  "missa": 8011,
  "\u2581kulutus": 8012,
  "\u2581N\u00e4yt\u00e4t": 8013,
  "\u2581drawing": 8014,
  "\u2581rapid": 8015,
  "\u2581designated": 8016,
  "uksien": 8017,
  "\u2581invitation": 8018,
  "\u2581codes": 8019,
  "\u2581p\u00e4\u00e4t\u00e4": 8020,
  "\u2581leaflet": 8021,
  "\u2581fill": 8022,
  "\u2581veterinary": 8023,
  "\u2581neiti": 8024,
  "\u2581odota": 8025,
  "ction": 8026,
  "\u2581v\u00e4l": 8027,
  "\u258197": 8028,
  "\u2581Kosovo": 8029,
  "tykset": 8030,
  "jista": 8031,
  "\u2581tarve": 8032,
  "ery": 8033,
  "\u2581sivusto": 8034,
  "\u2581keskuspankin": 8035,
  "\u2581afternoon": 8036,
  "\u2581omasta": 8037,
  "\u2581represents": 8038,
  "\u2581attitude": 8039,
  "\u2581kilpailua": 8040,
  "\u2581match": 8041,
  "hintaindeksi": 8042,
  "\u2581hakemaan": 8043,
  "vallan": 8044,
  "\u2581definitions": 8045,
  "\u2581etel\u00e4": 8046,
  "\u2581Japan": 8047,
  "\u2581kansainv\u00e4linen": 8048,
  "\u2581osapuoli": 8049,
  "ace": 8050,
  "tellut": 8051,
  "ila": 8052,
  "\u2581kansalaisille": 8053,
  "\u2581soveltaminen": 8054,
  "\u2581Rome": 8055,
  "\u2581Jatka": 8056,
  "matka": 8057,
  "LI": 8058,
  "\u2581pilot": 8059,
  "\u2581Has": 8060,
  "\u2581vaaditaan": 8061,
  "\u2581yksinomaan": 8062,
  "tuotteet": 8063,
  "MP": 8064,
  "\u2581osoitti": 8065,
  "\u2581sektorin": 8066,
  "isella": 8067,
  "\u2581unionista": 8068,
  "\u2581kustannuksia": 8069,
  "\u2581TU": 8070,
  "\u2581inclusion": 8071,
  "\u2581Protection": 8072,
  "fin": 8073,
  "\u2581Ase": 8074,
  "\u2581teknologian": 8075,
  "\u2581laatua": 8076,
  "point": 8077,
  "\u2581muna": 8078,
  "\u2581keskeinen": 8079,
  "\u2581l\u00e4mp\u00f6": 8080,
  "tien": 8081,
  "\u2581K\u00e4": 8082,
  "SC": 8083,
  "hon": 8084,
  "\u2581sanaa": 8085,
  "\u2581suppose": 8086,
  "T\u00e4m\u00e4": 8087,
  "\u2581Find": 8088,
  "\u2581facility": 8089,
  "\u2581ottavat": 8090,
  "\u2581k\u00e4ski": 8091,
  "\u2581pool": 8092,
  "\u2581samat": 8093,
  "\u2581t\u00e4ytty": 8094,
  "\u2581lyhyt": 8095,
  "\u2581joulu": 8096,
  "\u2581flu": 8097,
  "\u2581helpottaa": 8098,
  "\u2581ruumiin": 8099,
  "\u2581Iran": 8100,
  "\u2581appropriations": 8101,
  "\u2581arvioinnin": 8102,
  "\u2581K\u00e4si": 8103,
  "tiedosto": 8104,
  "dic": 8105,
  "\u2581Parlamentti": 8106,
  "\u2581brings": 8107,
  "\u2581sheet": 8108,
  "\u2581eroa": 8109,
  "\u2581Source": 8110,
  "\u2581etua": 8111,
  "\u2581Eu": 8112,
  "jakso": 8113,
  "\u2581cycle": 8114,
  "\u25812005,": 8115,
  "\u25812004,": 8116,
  "oosi": 8117,
  "\u2581represented": 8118,
  "\u2581song": 8119,
  "\u2581ilmoitetaan": 8120,
  "\u2581underlying": 8121,
  "\u2581solu": 8122,
  "empaa": 8123,
  "\u2581pointed": 8124,
  "euro": 8125,
  "\u2581Q": 8126,
  "\u2581potilas": 8127,
  "\u2581sata": 8128,
  "\u2581Gal": 8129,
  "6].": 8130,
  "VAN": 8131,
  "\u2581esiintyy": 8132,
  "ajat": 8133,
  "\u2581milt\u00e4": 8134,
  "\u2581viikossa": 8135,
  "\u2581sukupuolen": 8136,
  "\u2581Single": 8137,
  "\u2581uutisia": 8138,
  "SS": 8139,
  "isyys": 8140,
  "\u2581j\u00e4senen": 8141,
  "\u2581sanovat": 8142,
  "\u2581increasingly": 8143,
  "\u2581Products": 8144,
  "\u2581voimakkaasti": 8145,
  "\u2581tabletti": 8146,
  "\u2581etsi\u00e4": 8147,
  "kohte": 8148,
  "\u2581maito": 8149,
  "\u2581Kuu": 8150,
  "\u2581Sis\u00e4": 8151,
  "\u2581Mel": 8152,
  "\u2581counter": 8153,
  "\u2581licences": 8154,
  "\u2581jalka": 8155,
  "\u2581v\u00e4\u00e4r\u00e4ss\u00e4": 8156,
  "\u0301": 8157,
  "ohjelmien": 8158,
  "\u2581component": 8159,
  "\u2581continuing": 8160,
  "LA": 8161,
  "\u00d7": 8162,
  "ttavan": 8163,
  "mattomat": 8164,
  "halli": 8165,
  "\u2581cat": 8166,
  "\u258104": 8167,
  "\u2581Guidelines": 8168,
  "isille": 8169,
  "\u258183": 8170,
  "\u2581varsin": 8171,
  "tse": 8172,
  "\u2581dress": 8173,
  "\u2581releases": 8174,
  "\u2581occurred": 8175,
  "\u2581mukaisen": 8176,
  "tteja": 8177,
  "nis": 8178,
  "\u2581Far": 8179,
  "\u2581Lei": 8180,
  "\u2581rehu": 8181,
  "7)": 8182,
  "ual": 8183,
  "aksi": 8184,
  "ists": 8185,
  "\u2581edellytt\u00e4en": 8186,
  "\u2581puheenvuoro": 8187,
  "\u2581Yhdistyneen": 8188,
  "TY": 8189,
  "m\u00e4n": 8190,
  "\u2581demonstrated": 8191,
  "\u2581Ste": 8192,
  "\u2581vuodeksi": 8193,
  "laji": 8194,
  "\u2581Jean": 8195,
  "\u2581regularly": 8196,
  "\u2581kol": 8197,
  "\u2581officials": 8198,
  "operation": 8199,
  "nnasta": 8200,
  "\u2581Friday": 8201,
  "rom": 8202,
  "imet": 8203,
  "\u2581sensitive": 8204,
  "\u2581osoitta": 8205,
  "\u2581Company": 8206,
  "\u2581governing": 8207,
  "\u2581ilmenee": 8208,
  "\u2581ty\u00f6voima": 8209,
  "\u2581massa": 8210,
  "\u2581nostaa": 8211,
  "\u2581n\u00e4kee": 8212,
  "tuminen": 8213,
  "\u2581raa": 8214,
  "ez": 8215,
  "\u2581handling": 8216,
  "\u2581apostoli": 8217,
  "\u2581lawyer": 8218,
  "\u2581escape": 8219,
  "reiden": 8220,
  "\u2581subsequent": 8221,
  "\u2581keskustelua": 8222,
  "\u2581alus": 8223,
  "\u2581bone": 8224,
  "\u2581sarja": 8225,
  "\u2581army": 8226,
  "\u2581edist\u00e4miseksi": 8227,
  "\u2581undertaken": 8228,
  "\u00e4si": 8229,
  "\u2581solidarity": 8230,
  "\u2581tyt\u00f6n": 8231,
  "ministeri\u00f6": 8232,
  "\u2581Istu": 8233,
  "sivu": 8234,
  "\u2581kuvia": 8235,
  "kaasu": 8236,
  "\u2581empty": 8237,
  "\u2581tells": 8238,
  "\u2581puhelin": 8239,
  "\u2581tarvetta": 8240,
  "\u2581Sanoit": 8241,
  "\u2581participants": 8242,
  "\u2581osallistumista": 8243,
  "\u2581Hall": 8244,
  "turi": 8245,
  "\u2581is\u00e4n": 8246,
  "\u2581\u00e4itisi": 8247,
  "oikeu": 8248,
  "\u2581Vara": 8249,
  "\u2581risti": 8250,
  "nimi": 8251,
  "j\u00e4rjestelmi\u00e4": 8252,
  "\u2581ope": 8253,
  "\u2581ehdo": 8254,
  "\u2581800": 8255,
  "1995": 8256,
  "amo": 8257,
  "\u2581owe": 8258,
  "\u2581kokonaisuudessa": 8259,
  "\u2581tuskin": 8260,
  "\u2581Col": 8261,
  "\u2581p\u00e4\u00e4see": 8262,
  "\u2581Ya": 8263,
  "\u2581tunnusta": 8264,
  "\u2581preliminary": 8265,
  "\u2581organisaatio": 8266,
  "\u2581Toiseksi": 8267,
  "\u2581Job": 8268,
  "\u2581laitteet": 8269,
  "\u2581l\u00e4sn\u00e4": 8270,
  "tyst\u00e4": 8271,
  "\u2581kapteeni": 8272,
  "\u2581released": 8273,
  "\u2581tutkimusta": 8274,
  "\u2581Tutki": 8275,
  "EM": 8276,
  "\u2581pako": 8277,
  "\u2581kes\u00e4": 8278,
  "\u2581swear": 8279,
  "rt": 8280,
  "\u2581valtava": 8281,
  "\u2581male": 8282,
  "kot": 8283,
  "\u2581T\u00e4ytyy": 8284,
  "\u2581pyrki": 8285,
  "\u2581electric": 8286,
  "\u2581kollegat": 8287,
  "\u2581pieces": 8288,
  "\u2581pyh\u00e4": 8289,
  "ali": 8290,
  "\u2581py\u00f6ri": 8291,
  "\u2581palo": 8292,
  "\u2581Besides": 8293,
  "\u2581placebo": 8294,
  "\u2581cast": 8295,
  "\u2581projekti": 8296,
  "\u2581tarvitsemme": 8297,
  "\u2581transition": 8298,
  "\u258119.": 8299,
  "\u2581village": 8300,
  "\u2581Soita": 8301,
  "\u2581Kreikan": 8302,
  "\u2581multiple": 8303,
  "\u2581kertomuksen": 8304,
  "\u2581Climate": 8305,
  "\u2581mitk\u00e4": 8306,
  "\u2581mate": 8307,
  "sopimusten": 8308,
  "\u2581tekiv\u00e4t": 8309,
  "\u2581lentokone": 8310,
  "\u2581palvelija": 8311,
  "yde": 8312,
  "\u2581memory": 8313,
  "iste": 8314,
  "misess\u00e4": 8315,
  "gel": 8316,
  "\u2581Tim": 8317,
  "ban": 8318,
  "ical": 8319,
  "\u2581Cyprus": 8320,
  "\u2581club": 8321,
  "\u2581Palvelu": 8322,
  "\u2581hallitusten": 8323,
  "\u2581destroyed": 8324,
  "markkina": 8325,
  "\u2581oireita": 8326,
  "\u2581Sunday": 8327,
  "\u2581tietenk\u00e4\u00e4n": 8328,
  "\u2581School": 8329,
  "\u2581core": 8330,
  "\u2581repeal": 8331,
  "\u2581soil": 8332,
  "\u258106": 8333,
  "\u2581voluntary": 8334,
  "\u2581Indeed": 8335,
  "\u2581acceptable": 8336,
  "\u2581rekister\u00f6ity": 8337,
  "\u2581seeking": 8338,
  "\u2581Yhdysvallat": 8339,
  "\u2581Etusivu": 8340,
  "\u2581helpo": 8341,
  "PI": 8342,
  "\u2581v\u00e4\u00e4r\u00e4": 8343,
  "KA": 8344,
  "\u2581Ran": 8345,
  "direktiivi": 8346,
  "board": 8347,
  "\u2581Egypt": 8348,
  "\u25813.1": 8349,
  "\u2581Hol": 8350,
  "\u2581adults": 8351,
  "\u2581believed": 8352,
  "\u2581Mik\u00e4li": 8353,
  "\u2581luotettava": 8354,
  "\u2581m\u00e4\u00e4ritt\u00e4\u00e4": 8355,
  "This": 8356,
  "oc": 8357,
  "ome": 8358,
  "\u25811989": 8359,
  "\u2581sentence": 8360,
  "\u2581assume": 8361,
  "ball": 8362,
  "\u2581Hein\u00e4kuu": 8363,
  "\u2581tahdo": 8364,
  "\u2581quotas": 8365,
  "\u2581Satan": 8366,
  "\u2581Rahoitus": 8367,
  "\u2581H\u00e4": 8368,
  "\u2581asetusta": 8369,
  "\u2581joy": 8370,
  "\u2581toiselle": 8371,
  "mani": 8372,
  "\u2581adjusted": 8373,
  "tuksiin": 8374,
  "SO": 8375,
  "gas": 8376,
  "\u2581models": 8377,
  "\u2581Kuin": 8378,
  "\u2581expert": 8379,
  "\u2581kohtalo": 8380,
  "\u2581palauttaa": 8381,
  "\u2581destination": 8382,
  "\u2581todista": 8383,
  "\u2581organic": 8384,
  "\u2581hyv\u00e4ksyt\u00e4\u00e4n": 8385,
  "\u2581eating": 8386,
  "\u2581Ruotsin": 8387,
  "\u2581block": 8388,
  "\u2581Fu": 8389,
  "\u2581links": 8390,
  "ttujen": 8391,
  "\u2581cards": 8392,
  "\u2581ilmaista": 8393,
  "\u2581transferred": 8394,
  "suhde": 8395,
  "\u2581Raha": 8396,
  "laitoksen": 8397,
  "\u2581ye": 8398,
  "\u2581munuaisten": 8399,
  "\u2581turvassa": 8400,
  "\u2581torjunta": 8401,
  "bal": 8402,
  "\u2581Angel": 8403,
  "\u2581Olkaa": 8404,
  "\u2581infektio": 8405,
  "odi": 8406,
  "\u2581mainita": 8407,
  "\u2581hallinnoi": 8408,
  "\u2581Aihe": 8409,
  "\u2581tourism": 8410,
  "\u2581suuntaviivojen": 8411,
  "\u2581kiinti\u00f6": 8412,
  "\u2581hakija": 8413,
  "\u2581parent": 8414,
  "\u2581Slovakia": 8415,
  "\u2581fo": 8416,
  "kk": 8417,
  "\u2581providers": 8418,
  "\u2581Keskustelu": 8419,
  "\u2581viranomaisille": 8420,
  "\u2581sodan": 8421,
  "\u2581tra": 8422,
  "win": 8423,
  "\u2581tarjoavat": 8424,
  "\u2581kokouksessa": 8425,
  "\u2581luettuina": 8426,
  "\u2581grew": 8427,
  "\u2581k\u00e4sittelyss\u00e4": 8428,
  "\u2581bottle": 8429,
  "\u2581smoke": 8430,
  "\u2581kyseist\u00e4": 8431,
  "\u2581turvaa": 8432,
  "yhteis\u00f6": 8433,
  "\u2581taloudellisia": 8434,
  "ffi": 8435,
  "\u2581Ger": 8436,
  "ible": 8437,
  "\u2581suihku": 8438,
  "\u2581amend": 8439,
  "oida": 8440,
  "\u25812.1": 8441,
  "\u2581alueet": 8442,
  "\u2581asetta": 8443,
  "isessa": 8444,
  "\u2581girlfriend": 8445,
  "\u2581nuoriso": 8446,
  "\u2581op": 8447,
  "\u2581ought": 8448,
  "\u2581paikassa": 8449,
  "\u2581buddy": 8450,
  "GA": 8451,
  "\u2581excuse": 8452,
  "\u2581hankkia": 8453,
  "\u2581ancient": 8454,
  "ess\u00e4\u00e4n": 8455,
  "\u2581(12": 8456,
  "\u2581W\u00e4rtsil\u00e4": 8457,
  "\u25811.6": 8458,
  "tarkas": 8459,
  "\u2581vaatia": 8460,
  "\u25811.4": 8461,
  "\u2581object": 8462,
  "\u2581odotetaan": 8463,
  "EF": 8464,
  "\u2581EP": 8465,
  "\u2581band": 8466,
  "tt\u00e4isi": 8467,
  "\u2581(4)": 8468,
  "\u2581female": 8469,
  "\u2581soitti": 8470,
  "dyn": 8471,
  "\u2581terrorism": 8472,
  "yri": 8473,
  "\u2581sheep": 8474,
  "\u2581teht\u00e4vi\u00e4": 8475,
  "\u2581varustettu": 8476,
  "\u2581tarkastelu": 8477,
  "\u2581merkitse": 8478,
  "\u2581muovi": 8479,
  "\u2581laitteiden": 8480,
  "\u2581MA": 8481,
  "\u2581nousi": 8482,
  "\u25812.2": 8483,
  "\u2581Ministers": 8484,
  "\u2581ilmoituksen": 8485,
  "et\u00e4\u00e4n": 8486,
  "\u2581osia": 8487,
  "\u25811.5": 8488,
  "\u2581\u00e4skett\u00e4in": 8489,
  "\u2581mennyt": 8490,
  "lat": 8491,
  "\u2581Radio": 8492,
  "\u2581etujen": 8493,
  "\u2581electrical": 8494,
  "\u2581pelasta": 8495,
  "\u2581recital": 8496,
  "\u2581tan": 8497,
  "tuista": 8498,
  "\u2581todiste": 8499,
  "\u2581Tur": 8500,
  "\u2581forced": 8501,
  "gal": 8502,
  "yytt\u00e4": 8503,
  "\u2581oletko": 8504,
  "\u2581hasn": 8505,
  "\u2581liiketoiminta": 8506,
  "\u2581Saturday": 8507,
  "\u2581pohjois": 8508,
  "luokan": 8509,
  "\u2581Ruotsi": 8510,
  "\u2581kansainv\u00e4list\u00e4": 8511,
  "\u2581assigned": 8512,
  "\u2581Muita": 8513,
  "ttaminen": 8514,
  "itin": 8515,
  "\u2581py\u00f6r\u00e4": 8516,
  "\u2581kuri": 8517,
  "\u2581110": 8518,
  "\u2581st": 8519,
  "\u2581\u00e4\u00e4nest\u00e4": 8520,
  "\u2581hiilidioksidi": 8521,
  "\u2581taa": 8522,
  "\u2581impairment": 8523,
  "\u2581Canada": 8524,
  "\u2581smell": 8525,
  "\u2581edist\u00e4minen": 8526,
  "\u2581L\u00e4hi": 8527,
  "p\u00e4iv\u00e4n\u00e4": 8528,
  "\u2581usual": 8529,
  "\u2581Institute": 8530,
  "\u2581vastuun": 8531,
  "metyyli": 8532,
  "\u2581Mother": 8533,
  "\u2581entirely": 8534,
  "kymment\u00e4": 8535,
  "\u2581teht\u00e4v\u00e4n\u00e4": 8536,
  "\u2581palkkio": 8537,
  "\u2581vilja": 8538,
  "\u2581(15": 8539,
  "\u2581suunta": 8540,
  "tt\u00e4v\u00e4t": 8541,
  "\u2581reserve": 8542,
  "\u2581flying": 8543,
  "CR": 8544,
  "Onko": 8545,
  "\u2581helvetti\u00e4": 8546,
  "\u2581appointment": 8547,
  "\u2581aikataulu": 8548,
  "\u2581k\u00e4ytt\u00e4m\u00e4ll\u00e4": 8549,
  "\u2581breast": 8550,
  "\u2581l\u00e4mp\u00f6tila": 8551,
  "\u2581l\u00f6yd\u00e4": 8552,
  "ple": 8553,
  "\u2581diabetes": 8554,
  "\u2581nai": 8555,
  "\u2581L\u00e4nsi": 8556,
  "testi": 8557,
  "\u258112:": 8558,
  "\u2581Given": 8559,
  "joille": 8560,
  "\u2581river": 8561,
  "\u2581taakse": 8562,
  "uttaa": 8563,
  "001": 8564,
  "\u2581Church": 8565,
  "\u2581Lee": 8566,
  "\u2581perustettu": 8567,
  "\u2581V\u00e4limeren": 8568,
  "\u2581my\u00f6nteisesti": 8569,
  "\u2581asioissa": 8570,
  "\u2581checked": 8571,
  "\u2581biggest": 8572,
  "\u2581henkil\u00f6st\u00f6n": 8573,
  "\u2581Direktiivin": 8574,
  "\u2581determination": 8575,
  "\u2581Washington": 8576,
  "\u2581fe": 8577,
  "\u2581owner": 8578,
  "\u2581exemption": 8579,
  "\u2581muualla": 8580,
  "\u2581pien": 8581,
  "\u2581Asian": 8582,
  "\u2581avusta": 8583,
  "\u2581seed": 8584,
  "\u2581Alue": 8585,
  "\u2581info": 8586,
  "\u25812016,": 8587,
  "\u2581Anything": 8588,
  "head": 8589,
  "tuja": 8590,
  "tkaa": 8591,
  "\u2581ajoi": 8592,
  "/6": 8593,
  "\u2581annetussa": 8594,
  "uksella": 8595,
  "kierro": 8596,
  "\u2581N\u00e4yt": 8597,
  "kappale": 8598,
  "\u2581Grand": 8599,
  "\u2581Nevertheless": 8600,
  "\u2581osallistu": 8601,
  "\u2581selk\u00e4": 8602,
  "\u2581findings": 8603,
  "\u2581kohdat": 8604,
  "\u2581sides": 8605,
  "\u2581tyypin": 8606,
  "\u2581File": 8607,
  "\u2581pyyd\u00e4n": 8608,
  "hallinto": 8609,
  "\u2581famous": 8610,
  "\u2581jutella": 8611,
  "\u2581Samalla": 8612,
  "kauppa": 8613,
  "\u2581vaali": 8614,
  "\u2581expression": 8615,
  "\u2581p\u00f6yt\u00e4kirja": 8616,
  "\u2581per\u00e4": 8617,
  "\u2581patent": 8618,
  "nnit": 8619,
  "that": 8620,
  "\u258107": 8621,
  "\u2581Tietenkin": 8622,
  "\u2581blind": 8623,
  "\u2581alka": 8624,
  "\u2581virasto": 8625,
  "\u2581IS": 8626,
  "\u2581flexibility": 8627,
  "\u2581tarvitsevat": 8628,
  "\u2581ken": 8629,
  "gro": 8630,
  "ilin": 8631,
  "\u2581fixing": 8632,
  "lee": 8633,
  "\u258111.": 8634,
  "\u2581analysoi": 8635,
  "\u2581letters": 8636,
  "\u2581presentation": 8637,
  "DLL": 8638,
  "\u2581yl\u00e4": 8639,
  "\u2581transaction": 8640,
  "\u2581varasto": 8641,
  "\u2581tunnista": 8642,
  "\u2581suspension": 8643,
  "\u2581keuhko": 8644,
  "org": 8645,
  "\u2581cream": 8646,
  "\u2581kerto": 8647,
  "\u2581perspective": 8648,
  "linja": 8649,
  "ll\u00e4\u00e4n": 8650,
  "\u2581tulet": 8651,
  "\u2581processed": 8652,
  "Le": 8653,
  "valiokunnan": 8654,
  "mys": 8655,
  "\u2581ajattelin": 8656,
  "\u2581nationals": 8657,
  "\u2581ty\u00f6nantaja": 8658,
  "\u2581kiva": 8659,
  "\u2581yksikk\u00f6": 8660,
  "back": 8661,
  "\u2581hankkeen": 8662,
  "\u2581sad": 8663,
  "\u2581admit": 8664,
  "\u2581Title": 8665,
  "\u2581v\u00e4": 8666,
  "\u2581lehden": 8667,
  "ray": 8668,
  "\u2581armo": 8669,
  "\u2581toimintaohjelma": 8670,
  "\u2581equality": 8671,
  "VO": 8672,
  "\u2581eurooppalainen": 8673,
  "ino": 8674,
  "\u2581perfectly": 8675,
  "\u2581perustamisesta": 8676,
  "laitteiden": 8677,
  "\u2581Laske": 8678,
  "\u2581puhunut": 8679,
  "\u2581svenska": 8680,
  "\u2581park": 8681,
  "\u2581Tarkoitan": 8682,
  "\u2581destruction": 8683,
  "\u2581Ukraine": 8684,
  "\u2581listening": 8685,
  "\u2581kutsui": 8686,
  "\u2581muodostavat": 8687,
  "/2006": 8688,
  "ymp\u00e4rist\u00f6": 8689,
  "\u2581syyt": 8690,
  "\u2581Aina": 8691,
  "\u2581Contract": 8692,
  "turva": 8693,
[...]
